{
  "version": "1.0",
  "truncation": null,
  "padding": null,
  "added_tokens": [
    {
      "id": 0,
      "special": true,
      "content": "[PAD]",
      "single_word": false,
      "lstrip": false,
      "rstrip": false,
      "normalized": false
    },
    {
      "id": 1,
      "special": true,
      "content": "[UNK]",
      "single_word": false,
      "lstrip": false,
      "rstrip": false,
      "normalized": false
    },
    {
      "id": 2,
      "special": true,
      "content": "[CLS]",
      "single_word": false,
      "lstrip": false,
      "rstrip": false,
      "normalized": false
    },
    {
      "id": 3,
      "special": true,
      "content": "[SEP]",
      "single_word": false,
      "lstrip": false,
      "rstrip": false,
      "normalized": false
    },
    {
      "id": 4,
      "special": true,
      "content": "[MASK]",
      "single_word": false,
      "lstrip": false,
      "rstrip": false,
      "normalized": false
    }
  ],
  "normalizer": {
    "type": "Lowercase"
  },
  "pre_tokenizer": {
    "type": "Sequence",
    "pretokenizers": [
      {
        "type": "Whitespace"
      }
    ]
  },
  "post_processor": {
    "type": "TemplateProcessing",
    "single": [
      {
        "SpecialToken": {
          "id": "[CLS]",
          "type_id": 0
        }
      },
      {
        "Sequence": {
          "id": "A",
          "type_id": 0
        }
      },
      {
        "SpecialToken": {
          "id": "[SEP]",
          "type_id": 0
        }
      }
    ],
    "pair": [
      {
        "SpecialToken": {
          "id": "[CLS]",
          "type_id": 0
        }
      },
      {
        "Sequence": {
          "id": "A",
          "type_id": 0
        }
      },
      {
        "SpecialToken": {
          "id": "[SEP]",
          "type_id": 0
        }
      },
      {
        "Sequence": {
          "id": "B",
          "type_id": 1
        }
      },
      {
        "SpecialToken": {
          "id": "[SEP]",
          "type_id": 1
        }
      }
    ],
    "special_tokens": {
      "[CLS]": {
        "id": "[CLS]",
        "ids": [
          2
        ],
        "tokens": [
          "[CLS]"
        ]
      },
      "[SEP]": {
        "id": "[SEP]",
        "ids": [
          3
        ],
        "tokens": [
          "[SEP]"
        ]
      }
    }
  },
  "decoder": {
    "type": "WordPiece",
    "prefix": "##",
    "cleanup": true
  },
  "model": {
    "type": "BPE",
    "dropout": null,
    "unk_token": "[UNK]",
    "continuing_subword_prefix": "##",
    "end_of_word_suffix": null,
    "fuse_unk": false,
    "vocab": {
      "[PAD]": 0,
      "[UNK]": 1,
      "[CLS]": 2,
      "[SEP]": 3,
      "[MASK]": 4,
      "!": 5,
      "\"": 6,
      "#": 7,
      "$": 8,
      "%": 9,
      "&": 10,
      "'": 11,
      "(": 12,
      ")": 13,
      "*": 14,
      "+": 15,
      ",": 16,
      "-": 17,
      ".": 18,
      "/": 19,
      "0": 20,
      "1": 21,
      "2": 22,
      "3": 23,
      "4": 24,
      "5": 25,
      "6": 26,
      "7": 27,
      "8": 28,
      "9": 29,
      ":": 30,
      ";": 31,
      "<": 32,
      "=": 33,
      ">": 34,
      "?": 35,
      "@": 36,
      "[": 37,
      "\\": 38,
      "]": 39,
      "^": 40,
      "_": 41,
      "`": 42,
      "a": 43,
      "b": 44,
      "c": 45,
      "d": 46,
      "e": 47,
      "f": 48,
      "g": 49,
      "h": 50,
      "i": 51,
      "j": 52,
      "k": 53,
      "l": 54,
      "m": 55,
      "n": 56,
      "o": 57,
      "p": 58,
      "q": 59,
      "r": 60,
      "s": 61,
      "t": 62,
      "u": 63,
      "v": 64,
      "w": 65,
      "x": 66,
      "y": 67,
      "z": 68,
      "{": 69,
      "|": 70,
      "}": 71,
      "~": 72,
      "¡": 73,
      "¢": 74,
      "£": 75,
      "¤": 76,
      "¥": 77,
      "¦": 78,
      "§": 79,
      "¨": 80,
      "©": 81,
      "«": 82,
      "¬": 83,
      "­": 84,
      "®": 85,
      "°": 86,
      "±": 87,
      "²": 88,
      "³": 89,
      "´": 90,
      "µ": 91,
      "¶": 92,
      "·": 93,
      "¸": 94,
      "¹": 95,
      "º": 96,
      "»": 97,
      "¼": 98,
      "½": 99,
      "¾": 100,
      "¿": 101,
      "×": 102,
      "ß": 103,
      "à": 104,
      "á": 105,
      "â": 106,
      "ã": 107,
      "ä": 108,
      "å": 109,
      "æ": 110,
      "ç": 111,
      "è": 112,
      "é": 113,
      "ê": 114,
      "ë": 115,
      "ì": 116,
      "í": 117,
      "î": 118,
      "ï": 119,
      "ð": 120,
      "ñ": 121,
      "ò": 122,
      "ó": 123,
      "ô": 124,
      "õ": 125,
      "ö": 126,
      "÷": 127,
      "ø": 128,
      "ù": 129,
      "ú": 130,
      "û": 131,
      "ü": 132,
      "ý": 133,
      "þ": 134,
      "ÿ": 135,
      "ā": 136,
      "ă": 137,
      "ą": 138,
      "ć": 139,
      "ĉ": 140,
      "č": 141,
      "ď": 142,
      "đ": 143,
      "ē": 144,
      "ę": 145,
      "ě": 146,
      "ğ": 147,
      "ī": 148,
      "ı": 149,
      "ĺ": 150,
      "ľ": 151,
      "ł": 152,
      "ń": 153,
      "ň": 154,
      "ō": 155,
      "œ": 156,
      "ś": 157,
      "ş": 158,
      "š": 159,
      "ť": 160,
      "ū": 161,
      "ů": 162,
      "ź": 163,
      "ż": 164,
      "ž": 165,
      "ƃ": 166,
      "ƒ": 167,
      "ǁ": 168,
      "ǝ": 169,
      "ț": 170,
      "ɐ": 171,
      "ɑ": 172,
      "ɒ": 173,
      "ɔ": 174,
      "ə": 175,
      "ɛ": 176,
      "ɟ": 177,
      "ɥ": 178,
      "ɪ": 179,
      "ɯ": 180,
      "ɹ": 181,
      "ʇ": 182,
      "ʌ": 183,
      "ʎ": 184,
      "ʞ": 185,
      "ˈ": 186,
      "ˌ": 187,
      "ː": 188,
      "˥": 189,
      "̀": 190,
      "́": 191,
      "̇": 192,
      "̈": 193,
      "ά": 194,
      "έ": 195,
      "ή": 196,
      "ί": 197,
      "α": 198,
      "β": 199,
      "γ": 200,
      "δ": 201,
      "ε": 202,
      "ζ": 203,
      "η": 204,
      "θ": 205,
      "ι": 206,
      "κ": 207,
      "λ": 208,
      "μ": 209,
      "ν": 210,
      "ξ": 211,
      "ο": 212,
      "π": 213,
      "ρ": 214,
      "ς": 215,
      "σ": 216,
      "τ": 217,
      "υ": 218,
      "φ": 219,
      "χ": 220,
      "ψ": 221,
      "ω": 222,
      "ό": 223,
      "ύ": 224,
      "ώ": 225,
      "а": 226,
      "б": 227,
      "в": 228,
      "г": 229,
      "д": 230,
      "е": 231,
      "ж": 232,
      "з": 233,
      "и": 234,
      "й": 235,
      "к": 236,
      "л": 237,
      "м": 238,
      "н": 239,
      "о": 240,
      "п": 241,
      "р": 242,
      "с": 243,
      "т": 244,
      "у": 245,
      "ф": 246,
      "х": 247,
      "ц": 248,
      "ч": 249,
      "ш": 250,
      "щ": 251,
      "ъ": 252,
      "ы": 253,
      "ь": 254,
      "э": 255,
      "ю": 256,
      "я": 257,
      "ё": 258,
      "і": 259,
      "ј": 260,
      "џ": 261,
      "ү": 262,
      "ә": 263,
      "ө": 264,
      "ְ": 265,
      "ֱ": 266,
      "ֲ": 267,
      "ִ": 268,
      "ֵ": 269,
      "ֶ": 270,
      "ַ": 271,
      "ָ": 272,
      "ֹ": 273,
      "ּ": 274,
      "ׁ": 275,
      "ׂ": 276,
      "א": 277,
      "ב": 278,
      "ג": 279,
      "ד": 280,
      "ה": 281,
      "ו": 282,
      "ז": 283,
      "ח": 284,
      "ט": 285,
      "י": 286,
      "ך": 287,
      "כ": 288,
      "ל": 289,
      "ם": 290,
      "מ": 291,
      "ן": 292,
      "נ": 293,
      "ס": 294,
      "ע": 295,
      "ף": 296,
      "פ": 297,
      "ץ": 298,
      "צ": 299,
      "ק": 300,
      "ר": 301,
      "ש": 302,
      "ת": 303,
      "،": 304,
      "؛": 305,
      "ء": 306,
      "آ": 307,
      "أ": 308,
      "إ": 309,
      "ئ": 310,
      "ا": 311,
      "ب": 312,
      "ة": 313,
      "ت": 314,
      "ث": 315,
      "ج": 316,
      "ح": 317,
      "خ": 318,
      "د": 319,
      "ذ": 320,
      "ر": 321,
      "ز": 322,
      "س": 323,
      "ش": 324,
      "ع": 325,
      "غ": 326,
      "ف": 327,
      "ق": 328,
      "ك": 329,
      "ل": 330,
      "م": 331,
      "ن": 332,
      "ه": 333,
      "و": 334,
      "ى": 335,
      "ي": 336,
      "ً": 337,
      "َ": 338,
      "ُ": 339,
      "ِ": 340,
      "ّ": 341,
      "ْ": 342,
      "٠": 343,
      "١": 344,
      "٤": 345,
      "پ": 346,
      "ک": 347,
      "گ": 348,
      "ۇ": 349,
      "ی": 350,
      "ە": 351,
      "ं": 352,
      "ए": 353,
      "क": 354,
      "ख": 355,
      "ग": 356,
      "च": 357,
      "छ": 358,
      "ज": 359,
      "ट": 360,
      "ण": 361,
      "त": 362,
      "द": 363,
      "न": 364,
      "प": 365,
      "ब": 366,
      "म": 367,
      "य": 368,
      "र": 369,
      "ल": 370,
      "व": 371,
      "ष": 372,
      "स": 373,
      "ह": 374,
      "ा": 375,
      "ि": 376,
      "ी": 377,
      "ु": 378,
      "ू": 379,
      "ृ": 380,
      "े": 381,
      "ो": 382,
      "्": 383,
      "ত": 384,
      "ন": 385,
      "ব": 386,
      "ভ": 387,
      "ম": 388,
      "র": 389,
      "ল": 390,
      "ষ": 391,
      "স": 392,
      "হ": 393,
      "া": 394,
      "ি": 395,
      "ে": 396,
      "্": 397,
      "க": 398,
      "ட": 399,
      "த": 400,
      "ப": 401,
      "ம": 402,
      "ர": 403,
      "ி": 404,
      "ு": 405,
      "்": 406,
      "ఆ": 407,
      "ట": 408,
      "డ": 409,
      "ల": 410,
      "ి": 411,
      "ు": 412,
      "్": 413,
      "ം": 414,
      "അ": 415,
      "എ": 416,
      "ക": 417,
      "ട": 418,
      "ത": 419,
      "ദ": 420,
      "ന": 421,
      "പ": 422,
      "മ": 423,
      "ര": 424,
      "ല": 425,
      "ള": 426,
      "ാ": 427,
      "ി": 428,
      "ു": 429,
      "്": 430,
      "ေ": 431,
      "း": 432,
      "ᄅ": 433,
      "ᴉ": 434,
      "ṛ": 435,
      "ỡ": 436,
      "​": 437,
      "‌": 438,
      "‍": 439,
      "‎": 440,
      "‐": 441,
      "–": 442,
      "—": 443,
      "‘": 444,
      "’": 445,
      "‚": 446,
      "“": 447,
      "”": 448,
      "„": 449,
      "•": 450,
      "‥": 451,
      "…": 452,
      "‪": 453,
      "‬": 454,
      "‰": 455,
      "′": 456,
      "‹": 457,
      "›": 458,
      "‾": 459,
      "‿": 460,
      "⁄": 461,
      "⁶": 462,
      "₀": 463,
      "₁": 464,
      "₂": 465,
      "₃": 466,
      "₄": 467,
      "₅": 468,
      "₆": 469,
      "ₖ": 470,
      "€": 471,
      "№": 472,
      "™": 473,
      "ℯ": 474,
      "ⅈ": 475,
      "←": 476,
      "↑": 477,
      "→": 478,
      "↓": 479,
      "⇒": 480,
      "∈": 481,
      "∑": 482,
      "−": 483,
      "∗": 484,
      "∙": 485,
      "√": 486,
      "∞": 487,
      "∩": 488,
      "≠": 489,
      "≡": 490,
      "≤": 491,
      "≥": 492,
      "⋅": 493,
      "⌂": 494,
      "⌠": 495,
      "⌡": 496,
      "⎛": 497,
      "⎜": 498,
      "⎝": 499,
      "⎞": 500,
      "⎟": 501,
      "⎠": 502,
      "⎡": 503,
      "⎢": 504,
      "⎣": 505,
      "⎤": 506,
      "⎥": 507,
      "⎦": 508,
      "⎮": 509,
      "─": 510,
      "│": 511,
      "┌": 512,
      "┐": 513,
      "└": 514,
      "┘": 515,
      "├": 516,
      "┤": 517,
      "┬": 518,
      "┴": 519,
      "┼": 520,
      "═": 521,
      "║": 522,
      "╒": 523,
      "╓": 524,
      "╔": 525,
      "╕": 526,
      "╖": 527,
      "╗": 528,
      "╘": 529,
      "╙": 530,
      "╚": 531,
      "╛": 532,
      "╜": 533,
      "╝": 534,
      "╞": 535,
      "╟": 536,
      "╠": 537,
      "╡": 538,
      "╢": 539,
      "╣": 540,
      "╤": 541,
      "╥": 542,
      "╦": 543,
      "╧": 544,
      "╨": 545,
      "╩": 546,
      "╪": 547,
      "╫": 548,
      "╬": 549,
      "╱": 550,
      "╲": 551,
      "▀": 552,
      "▄": 553,
      "█": 554,
      "▉": 555,
      "▊": 556,
      "▌": 557,
      "▍": 558,
      "▎": 559,
      "▒": 560,
      "△": 561,
      "▶": 562,
      "►": 563,
      "▽": 564,
      "◄": 565,
      "○": 566,
      "◘": 567,
      "☃": 568,
      "★": 569,
      "☺": 570,
      "♠": 571,
      "♡": 572,
      "♣": 573,
      "♥": 574,
      "♦": 575,
      "✔": 576,
      "✪": 577,
      "❀": 578,
      "❃": 579,
      "❤": 580,
      "❯": 581,
      "➜": 582,
      "、": 583,
      "。": 584,
      "《": 585,
      "》": 586,
      "「": 587,
      "」": 588,
      "【": 589,
      "】": 590,
      "あ": 591,
      "い": 592,
      "う": 593,
      "え": 594,
      "お": 595,
      "か": 596,
      "が": 597,
      "く": 598,
      "こ": 599,
      "し": 600,
      "す": 601,
      "た": 602,
      "ち": 603,
      "と": 604,
      "の": 605,
      "は": 606,
      "ま": 607,
      "や": 608,
      "ら": 609,
      "り": 610,
      "る": 611,
      "れ": 612,
      "ん": 613,
      "ウ": 614,
      "ォ": 615,
      "オ": 616,
      "カ": 617,
      "ク": 618,
      "タ": 619,
      "ノ": 620,
      "フ": 621,
      "ラ": 622,
      "ン": 623,
      "・": 624,
      "ー": 625,
      "ㄣ": 626,
      "ㄱ": 627,
      "一": 628,
      "丁": 629,
      "万": 630,
      "三": 631,
      "上": 632,
      "下": 633,
      "不": 634,
      "专": 635,
      "世": 636,
      "业": 637,
      "东": 638,
      "丨": 639,
      "个": 640,
      "中": 641,
      "为": 642,
      "主": 643,
      "举": 644,
      "么": 645,
      "之": 646,
      "乡": 647,
      "了": 648,
      "事": 649,
      "于": 650,
      "人": 651,
      "什": 652,
      "今": 653,
      "代": 654,
      "以": 655,
      "件": 656,
      "任": 657,
      "会": 658,
      "位": 659,
      "住": 660,
      "体": 661,
      "何": 662,
      "作": 663,
      "你": 664,
      "使": 665,
      "依": 666,
      "保": 667,
      "信": 668,
      "修": 669,
      "值": 670,
      "債": 671,
      "像": 672,
      "儿": 673,
      "元": 674,
      "光": 675,
      "克": 676,
      "入": 677,
      "內": 678,
      "全": 679,
      "公": 680,
      "关": 681,
      "具": 682,
      "再": 683,
      "写": 684,
      "农": 685,
      "出": 686,
      "分": 687,
      "列": 688,
      "利": 689,
      "到": 690,
      "制": 691,
      "前": 692,
      "加": 693,
      "动": 694,
      "助": 695,
      "募": 696,
      "包": 697,
      "化": 698,
      "区": 699,
      "博": 700,
      "厂": 701,
      "压": 702,
      "县": 703,
      "双": 704,
      "发": 705,
      "口": 706,
      "可": 707,
      "台": 708,
      "号": 709,
      "司": 710,
      "合": 711,
      "同": 712,
      "名": 713,
      "后": 714,
      "否": 715,
      "含": 716,
      "和": 717,
      "哦": 718,
      "商": 719,
      "啊": 720,
      "四": 721,
      "国": 722,
      "在": 723,
      "地": 724,
      "场": 725,
      "型": 726,
      "城": 727,
      "基": 728,
      "塗": 729,
      "增": 730,
      "外": 731,
      "夜": 732,
      "大": 733,
      "天": 734,
      "女": 735,
      "好": 736,
      "委": 737,
      "婴": 738,
      "子": 739,
      "字": 740,
      "存": 741,
      "学": 742,
      "安": 743,
      "定": 744,
      "宝": 745,
      "实": 746,
      "客": 747,
      "小": 748,
      "尾": 749,
      "局": 750,
      "展": 751,
      "層": 752,
      "山": 753,
      "川": 754,
      "州": 755,
      "工": 756,
      "市": 757,
      "布": 758,
      "师": 759,
      "常": 760,
      "幕": 761,
      "年": 762,
      "广": 763,
      "店": 764,
      "度": 765,
      "建": 766,
      "开": 767,
      "式": 768,
      "强": 769,
      "影": 770,
      "微": 771,
      "徸": 772,
      "心": 773,
      "念": 774,
      "性": 775,
      "总": 776,
      "恩": 777,
      "息": 778,
      "情": 779,
      "成": 780,
      "我": 781,
      "或": 782,
      "所": 783,
      "才": 784,
      "打": 785,
      "抓": 786,
      "抹": 787,
      "指": 788,
      "据": 789,
      "接": 790,
      "推": 791,
      "措": 792,
      "提": 793,
      "插": 794,
      "收": 795,
      "政": 796,
      "敌": 797,
      "教": 798,
      "数": 799,
      "整": 800,
      "文": 801,
      "新": 802,
      "施": 803,
      "旅": 804,
      "日": 805,
      "时": 806,
      "易": 807,
      "是": 808,
      "显": 809,
      "時": 810,
      "曲": 811,
      "最": 812,
      "有": 813,
      "期": 814,
      "本": 815,
      "机": 816,
      "杆": 817,
      "林": 818,
      "果": 819,
      "查": 820,
      "校": 821,
      "根": 822,
      "條": 823,
      "检": 824,
      "椅": 825,
      "次": 826,
      "正": 827,
      "此": 828,
      "殤": 829,
      "氏": 830,
      "民": 831,
      "氯": 832,
      "水": 833,
      "汉": 834,
      "河": 835,
      "治": 836,
      "泉": 837,
      "法": 838,
      "测": 839,
      "济": 840,
      "海": 841,
      "深": 842,
      "清": 843,
      "游": 844,
      "漢": 845,
      "点": 846,
      "為": 847,
      "然": 848,
      "爱": 849,
      "牙": 850,
      "物": 851,
      "玉": 852,
      "理": 853,
      "瓜": 854,
      "甘": 855,
      "生": 856,
      "產": 857,
      "用": 858,
      "由": 859,
      "电": 860,
      "男": 861,
      "町": 862,
      "界": 863,
      "番": 864,
      "的": 865,
      "目": 866,
      "省": 867,
      "真": 868,
      "知": 869,
      "社": 870,
      "秒": 871,
      "租": 872,
      "移": 873,
      "空": 874,
      "第": 875,
      "算": 876,
      "管": 877,
      "簿": 878,
      "类": 879,
      "精": 880,
      "系": 881,
      "线": 882,
      "经": 883,
      "结": 884,
      "络": 885,
      "网": 886,
      "罪": 887,
      "置": 888,
      "美": 889,
      "者": 890,
      "肃": 891,
      "股": 892,
      "育": 893,
      "脫": 894,
      "與": 895,
      "花": 896,
      "英": 897,
      "莱": 898,
      "营": 899,
      "號": 900,
      "螺": 901,
      "行": 902,
      "表": 903,
      "補": 904,
      "裝": 905,
      "西": 906,
      "要": 907,
      "解": 908,
      "話": 909,
      "語": 910,
      "计": 911,
      "让": 912,
      "论": 913,
      "设": 914,
      "访": 915,
      "评": 916,
      "试": 917,
      "询": 918,
      "语": 919,
      "質": 920,
      "费": 921,
      "资": 922,
      "超": 923,
      "輸": 924,
      "转": 925,
      "输": 926,
      "达": 927,
      "进": 928,
      "述": 929,
      "通": 930,
      "道": 931,
      "部": 932,
      "都": 933,
      "酒": 934,
      "酸": 935,
      "重": 936,
      "鈉": 937,
      "镇": 938,
      "门": 939,
      "闻": 940,
      "阀": 941,
      "阳": 942,
      "阴": 943,
      "除": 944,
      "電": 945,
      "靜": 946,
      "非": 947,
      "面": 948,
      "页": 949,
      "项": 950,
      "额": 951,
      "餐": 952,
      "马": 953,
      "高": 954,
      "가": 955,
      "니": 956,
      "드": 957,
      "를": 958,
      "모": 959,
      "비": 960,
      "서": 961,
      "스": 962,
      "시": 963,
      "이": 964,
      "지": 965,
      "치": 966,
      "한": 967,
      "": 968,
      "": 969,
      "": 970,
      "": 971,
      "️": 972,
      "！": 973,
      "％": 974,
      "（": 975,
      "）": 976,
      "，": 977,
      "－": 978,
      "／": 979,
      "０": 980,
      "１": 981,
      "２": 982,
      "３": 983,
      "４": 984,
      "：": 985,
      "；": 986,
      "？": 987,
      "ａ": 988,
      "ｃ": 989,
      "ｅ": 990,
      "ｇ": 991,
      "ｈ": 992,
      "ｌ": 993,
      "ｎ": 994,
      "ｏ": 995,
      "ｒ": 996,
      "ｓ": 997,
      "ｔ": 998,
      "ｕ": 999,
      "ｙ": 1000,
      "｜": 1001,
      "｡": 1002,
      "ﾃ": 1003,
      "�": 1004,
      "##w": 1005,
      "##a": 1006,
      "##s": 1007,
      "##i": 1008,
      "##g": 1009,
      "##n": 1010,
      "##c": 1011,
      "##5": 1012,
      "##4": 1013,
      "##t": 1014,
      "##o": 1015,
      "##r": 1016,
      "##e": 1017,
      "##_": 1018,
      "##d": 1019,
      "##x": 1020,
      "##m": 1021,
      "##p": 1022,
      "##l": 1023,
      "##1": 1024,
      "##y": 1025,
      "##q": 1026,
      "##u": 1027,
      "##h": 1028,
      "##f": 1029,
      "##v": 1030,
      "##6": 1031,
      "##[": 1032,
      "##;": 1033,
      "##\\": 1034,
      "##]": 1035,
      "##'": 1036,
      "##,": 1037,
      "##7": 1038,
      "##8": 1039,
      "##3": 1040,
      "##0": 1041,
      "##k": 1042,
      "##2": 1043,
      "##b": 1044,
      "##:": 1045,
      "##j": 1046,
      "##9": 1047,
      "##\"": 1048,
      "##)": 1049,
      "##|": 1050,
      "##^": 1051,
      "##&": 1052,
      "##+": 1053,
      "##-": 1054,
      "##%": 1055,
      "##*": 1056,
      "##/": 1057,
      "##=": 1058,
      "##!": 1059,
      "##>": 1060,
      "##$": 1061,
      "##z": 1062,
      "##号": 1063,
      "##<": 1064,
      "##(": 1065,
      "##.": 1066,
      "##?": 1067,
      "##}": 1068,
      "##{": 1069,
      "##前": 1070,
      "##后": 1071,
      "##í": 1072,
      "##@": 1073,
      "###": 1074,
      "##é": 1075,
      "##‘": 1076,
      "##我": 1077,
      "##爱": 1078,
      "##¿": 1079,
      "##面": 1080,
      "##ã": 1081,
      "##ł": 1082,
      "##~": 1083,
      "##ᄅ": 1084,
      "##息": 1085,
      "##`": 1086,
      "##ä": 1087,
      "##页": 1088,
      "##ü": 1089,
      "##ó": 1090,
      "##ç": 1091,
      "##ö": 1092,
      "##会": 1093,
      "##最": 1094,
      "##念": 1095,
      "##什": 1096,
      "##么": 1097,
      "##于": 1098,
      "##接": 1099,
      "##收": 1100,
      "##要": 1101,
      "##新": 1102,
      "##评": 1103,
      "##论": 1104,
      "##的": 1105,
      "##通": 1106,
      "##知": 1107,
      "##电": 1108,
      "##子": 1109,
      "##件": 1110,
      "##地": 1111,
      "##ы": 1112,
      "##р": 1113,
      "##а": 1114,
      "##ж": 1115,
      "##е": 1116,
      "##н": 1117,
      "##и": 1118,
      "##м": 1119,
      "##½": 1120,
      "##─": 1121,
      "##니": 1122,
      "##ｏ": 1123,
      "##ｎ": 1124,
      "##ｇ": 1125,
      "##ž": 1126,
      "##ל": 1127,
      "##י": 1128,
      "##ם": 1129,
      "##о": 1130,
      "##л": 1131,
      "##ч": 1132,
      "##ю": 1133,
      "##ְ": 1134,
      "##ׁ": 1135,
      "##נ": 1136,
      "##ֵ": 1137,
      "##泉": 1138,
      "##瓜": 1139,
      "##州": 1140,
      "##区": 1141,
      "##工": 1142,
      "##商": 1143,
      "##所": 1144,
      "##一": 1145,
      "##费": 1146,
      "##ی": 1147,
      "##│": 1148,
      "##ё": 1149,
      "##у": 1150,
      "##ľ": 1151,
      "##á": 1152,
      "##ַ": 1153,
      "##ָ": 1154,
      "##ּ": 1155,
      "##в": 1156,
      "##【": 1157,
      "##ı": 1158,
      "##…": 1159,
      "##ɔ": 1160,
      "##₀": 1161,
      "##₁": 1162,
      "##₂": 1163,
      "##₃": 1164,
      "##₄": 1165,
      "##₅": 1166,
      "##₆": 1167,
      "##§": 1168,
      "##ֹ": 1169,
      "##ש": 1170,
      "##ֶ": 1171,
      "##ׂ": 1172,
      "##ה": 1173,
      "##з": 1174,
      "##с": 1175,
      "##т": 1176,
      "##ת": 1177,
      "##מ": 1178,
      "##�": 1179,
      "##ב": 1180,
      "##ר": 1181,
      "##д": 1182,
      "##г": 1183,
      "##█": 1184,
      "##α": 1185,
      "##ύ": 1186,
      "##ρ": 1187,
      "##ο": 1188,
      "##υ": 1189,
      "##»": 1190,
      "##া": 1191,
      "##ত": 1192,
      "##海": 1193,
      "##门": 1194,
      "##出": 1195,
      "##租": 1196,
      "##信": 1197,
      "##情": 1198,
      "##←": 1199,
      "##肃": 1200,
      "##省": 1201,
      "##局": 1202,
      "##发": 1203,
      "##布": 1204,
      "##ƒ": 1205,
      "##ñ": 1206,
      "##ð": 1207,
      "##º": 1208,
      "##à": 1209,
      "##“": 1210,
      "##語": 1211,
      "##ν": 1212,
      "##ε": 1213,
      "##π": 1214,
      "##ι": 1215,
      "##σ": 1216,
      "##τ": 1217,
      "##ή": 1218,
      "##μ": 1219,
      "##资": 1220,
      "##募": 1221,
      "##总": 1222,
      "##额": 1223,
      "##—": 1224,
      "##市": 1225,
      "##乡": 1226,
      "##镇": 1227,
      "##א": 1228,
      "##ו": 1229,
      "##ק": 1230,
      "##ד": 1231,
      "##े": 1232,
      "##然": 1233,
      "##不": 1234,
      "##本": 1235,
      "##⋅": 1236,
      "##й": 1237,
      "##–": 1238,
      "##я": 1239,
      "##б": 1240,
      "##经": 1241,
      "##济": 1242,
      "##ᴉ": 1243,
      "##ɯ": 1244,
      "##ǝ": 1245,
      "##语": 1246,
      "##漢": 1247,
      "##中": 1248,
      "##文": 1249,
      "##❤": 1250,
      "##═": 1251,
      "##╬": 1252,
      "##╣": 1253,
      "##è": 1254,
      "##以": 1255,
      "##同": 1256,
      "##條": 1257,
      "##或": 1258,
      "##行": 1259,
      "##上": 1260,
      "##述": 1261,
      "##全": 1262,
      "##部": 1263,
      "##任": 1264,
      "##何": 1265,
      "##事": 1266,
      "##ー": 1267,
      "##ا": 1268,
      "##ب": 1269,
      "##و": 1270,
      "##د": 1271,
      "##്": 1272,
      "##ട": 1273,
      "##​": 1274,
      "##к": 1275,
      "##ക": 1276,
      "##ع": 1277,
      "##年": 1278,
      "##第": 1279,
      "##號": 1280,
      "##修": 1281,
      "##ک": 1282,
      "##م": 1283,
      "##入": 1284,
      "##÷": 1285,
      "##µ": 1286,
      "##ς": 1287,
      "##£": 1288,
      "##ό": 1289,
      "##δ": 1290,
      "##š": 1291,
      "##ن": 1292,
      "##گ": 1293,
      "##ل": 1294,
      "##س": 1295,
      "##ر": 1296,
      "##ه": 1297,
      "##川": 1298,
      "##空": 1299,
      "##压": 1300,
      "##机": 1301,
      "##ý": 1302,
      "##ë": 1303,
      "##ß": 1304,
      "##ø": 1305,
      "##ш": 1306,
      "##ு": 1307,
      "##关": 1308,
      "##城": 1309,
      "##体": 1310,
      "##化": 1311,
      "##心": 1312,
      "##举": 1313,
      "##措": 1314,
      "##⎜": 1315,
      "##ā": 1316,
      "##č": 1317,
      "##县": 1318,
      "##开": 1319,
      "##展": 1320,
      "##酒": 1321,
      "##类": 1322,
      "##场": 1323,
      "##整": 1324,
      "##治": 1325,
      "##┌": 1326,
      "##┬": 1327,
      "##┐": 1328,
      "##╔": 1329,
      "##╦": 1330,
      "##╗": 1331,
      "##╒": 1332,
      "##╤": 1333,
      "##╕": 1334,
      "##╓": 1335,
      "##╥": 1336,
      "##╖": 1337,
      "##║": 1338,
      "##├": 1339,
      "##┼": 1340,
      "##┤": 1341,
      "##╠": 1342,
      "##╞": 1343,
      "##╪": 1344,
      "##╡": 1345,
      "##╟": 1346,
      "##╫": 1347,
      "##╢": 1348,
      "##└": 1349,
      "##┴": 1350,
      "##┘": 1351,
      "##╚": 1352,
      "##╩": 1353,
      "##╝": 1354,
      "##╘": 1355,
      "##╧": 1356,
      "##╛": 1357,
      "##╙": 1358,
      "##╨": 1359,
      "##╜": 1360,
      "##æ": 1361,
      "##न": 1362,
      "##ల": 1363,
      "##ు": 1364,
      "##ి": 1365,
      "##п": 1366,
      "##时": 1367,
      "##€": 1368,
      "##γ": 1369,
      "##ز": 1370,
      "##ന": 1371,
      "##ത": 1372,
      "##ു": 1373,
      "##‌": 1374,
      "##щ": 1375,
      "##ף": 1376,
      "##－": 1377,
      "##å": 1378,
      "##ş": 1379,
      "##正": 1380,
      "##国": 1381,
      "##三": 1382,
      "##四": 1383,
      "##時": 1384,
      "##⁄": 1385,
      "##☺": 1386,
      "##小": 1387,
      "##重": 1388,
      "##ق": 1389,
      "##”": 1390,
      "##店": 1391,
      "##人": 1392,
      "##才": 1393,
      "##网": 1394,
      "##施": 1395,
      "##ω": 1396,
      "##｡": 1397,
      "##¡": 1398,
      "##可": 1399,
      "##输": 1400,
      "##次": 1401,
      "##·": 1402,
      "##•": 1403,
      "##ദ": 1404,
      "##ം": 1405,
      "##ン": 1406,
      "##在": 1407,
      "##住": 1408,
      "##：": 1409,
      "##θ": 1410,
      "##κ": 1411,
      "##ִ": 1412,
      "##写": 1413,
      "##真": 1414,
      "##¸": 1415,
      "##ά": 1416,
      "##ь": 1417,
      "##ć": 1418,
      "##性": 1419,
      "##脫": 1420,
      "##位": 1421,
      "##হ": 1422,
      "##ি": 1423,
      "##ষ": 1424,
      "##ে": 1425,
      "##র": 1426,
      "##数": 1427,
      "##据": 1428,
      "##有": 1429,
      "##目": 1430,
      "##下": 1431,
      "##日": 1432,
      "##名": 1433,
      "##이": 1434,
      "##â": 1435,
      "##ס": 1436,
      "##游": 1437,
      "##法": 1438,
      "##果": 1439,
      "##常": 1440,
      "##η": 1441,
      "##水": 1442,
      "##专": 1443,
      "##项": 1444,
      "##农": 1445,
      "##ɐ": 1446,
      "##ί": 1447,
      "##台": 1448,
      "##安": 1449,
      "##检": 1450,
      "##测": 1451,
      "##پ": 1452,
      "##ش": 1453,
      "##ت": 1454,
      "##्": 1455,
      "##र": 1456,
      "##त": 1457,
      "##ि": 1458,
      "##ब": 1459,
      "##ं": 1460,
      "##ť": 1461,
      "##ʌ": 1462,
      "##ц": 1463,
      "##ג": 1464,
      "##פ": 1465,
      "##博": 1466,
      "##客": 1467,
      "##提": 1468,
      "##♥": 1469,
      "##ാ": 1470,
      "##ര": 1471,
      "##都": 1472,
      "##计": 1473,
      "##结": 1474,
      "##合": 1475,
      "##深": 1476,
      "##政": 1477,
      "##教": 1478,
      "##育": 1479,
      "##ح": 1480,
      "##ك": 1481,
      "##’": 1482,
      "##ɹ": 1483,
      "##ர": 1484,
      "##்": 1485,
      "##ப": 1486,
      "##λ": 1487,
      "##ा": 1488,
      "##ח": 1489,
      "##¥": 1490,
      "##△": 1491,
      "##î": 1492,
      "##♣": 1493,
      "##ف": 1494,
      "##х": 1495,
      "##♠": 1496,
      "##♦": 1497,
      "##²": 1498,
      "##か": 1499,
      "##す": 1500,
      "##ô": 1501,
      "##̇": 1502,
      "##ץ": 1503,
      "##ě": 1504,
      "##曲": 1505,
      "##保": 1506,
      "##َ": 1507,
      "##ي": 1508,
      "##ْ": 1509,
      "##غ": 1510,
      "##ल": 1511,
      "##ी": 1512,
      "##°": 1513,
      "##ம": 1514,
      "##ן": 1515,
      "##★": 1516,
      "##‥": 1517,
      "##ј": 1518,
      "##否": 1519,
      "##者": 1520,
      "##成": 1521,
      "##显": 1522,
      "##ט": 1523,
      "##ِ": 1524,
      "##ُ": 1525,
      "##ّ": 1526,
      "##阀": 1527,
      "##∞": 1528,
      "##ú": 1529,
      "##¬": 1530,
      "##管": 1531,
      "##，": 1532,
      "##ò": 1533,
      "##⎢": 1534,
      "##١": 1535,
      "##タ": 1536,
      "##カ": 1537,
      "##ह": 1538,
      "##क": 1539,
      "##द": 1540,
      "##म": 1541,
      "##使": 1542,
      "##用": 1543,
      "##⎠": 1544,
      "##２": 1545,
      "##ą": 1546,
      "##界": 1547,
      "##œ": 1548,
      "##闻": 1549,
      "##צ": 1550,
      "##¶": 1551,
      "##加": 1552,
      "##试": 1553,
      "##έ": 1554,
      "##ê": 1555,
      "##ï": 1556,
      "##ì": 1557,
      "##û": 1558,
      "##ù": 1559,
      "##ÿ": 1560,
      "##是": 1561,
      "##生": 1562,
      "##ō": 1563,
      "##ț": 1564,
      "##由": 1565,
      "##实": 1566,
      "##民": 1567,
      "##스": 1568,
      "##询": 1569,
      "##❯": 1570,
      "##美": 1571,
      "##业": 1572,
      "##ע": 1573,
      "##ψ": 1574,
      "##⎦": 1575,
      "##学": 1576,
      "##校": 1577,
      "##进": 1578,
      "##大": 1579,
      "##查": 1580,
      "##أ": 1581,
      "##╲": 1582,
      "##╱": 1583,
      "##ി": 1584,
      "##ź": 1585,
      "##ń": 1586,
      "##る": 1587,
      "##山": 1588,
      "##推": 1589,
      "##强": 1590,
      "##高": 1591,
      "##旅": 1592,
      "##ん": 1593,
      "##や": 1594,
      "##く": 1595,
      "##易": 1596,
      "##牙": 1597,
      "##ə": 1598,
      "##ㄱ": 1599,
      "##利": 1600,
      "##根": 1601,
      "##动": 1602,
      "##值": 1603,
      "##为": 1604,
      "##个": 1605,
      "##存": 1606,
      "##ъ": 1607,
      "##☃": 1608,
      "##型": 1609,
      "##克": 1610,
      "##ष": 1611,
      "##̀": 1612,
      "##ള": 1613,
      "##ֲ": 1614,
      "##‬": 1615,
      "##作": 1616,
      "##列": 1617,
      "##表": 1618,
      "##徸": 1619,
      "##非": 1620,
      "##委": 1621,
      "##ă": 1622,
      "##式": 1623,
      "##를": 1624,
      "##到": 1625,
      "##▀": 1626,
      "##¦": 1627,
      "##⌂": 1628,
      "##¨": 1629,
      "##ך": 1630,
      "##ğ": 1631,
      "##−": 1632,
      "##þ": 1633,
      "##ج": 1634,
      "##ة": 1635,
      "##⎥": 1636,
      "##ә": 1637,
      "##ɟ": 1638,
      "##√": 1639,
      "##¤": 1640,
      "##０": 1641,
      "##４": 1642,
      "##番": 1643,
      "##道": 1644,
      "##公": 1645,
      "##司": 1646,
      "##시": 1647,
      "##好": 1648,
      "##期": 1649,
      "##ф": 1650,
      "##э": 1651,
      "##ɒ": 1652,
      "##×": 1653,
      "##分": 1654,
      "##口": 1655,
      "##ż": 1656,
      "##ら": 1657,
      "##が": 1658,
      "##ല": 1659,
      "##‍": 1660,
      "##́": 1661,
      "##©": 1662,
      "##建": 1663,
      "##抓": 1664,
      "##れ": 1665,
      "##え": 1666,
      "##う": 1667,
      "##儿": 1668,
      "##访": 1669,
      "##ז": 1670,
      "##β": 1671,
      "##ो": 1672,
      "##स": 1673,
      "##ृ": 1674,
      "##ث": 1675,
      "##ி": 1676,
      "##阳": 1677,
      "##莱": 1678,
      "##络": 1679,
      "##社": 1680,
      "##≡": 1681,
      "##±": 1682,
      "##≥": 1683,
      "##≤": 1684,
      "##⌠": 1685,
      "##⌡": 1686,
      "##∙": 1687,
      "##´": 1688,
      "##³": 1689,
      "##ａ": 1690,
      "##ｌ": 1691,
      "##ন": 1692,
      "##্": 1693,
      "##精": 1694,
      "##厂": 1695,
      "##代": 1696,
      "##理": 1697,
      "##螺": 1698,
      "##杆": 1699,
      "##ち": 1700,
      "##は": 1701,
      "##ु": 1702,
      "##χ": 1703,
      "##ى": 1704,
      "##∩": 1705,
      "##ォ": 1706,
      "##オ": 1707,
      "##«": 1708,
      "##ś": 1709,
      "##玉": 1710,
      "##町": 1711,
      "##１": 1712,
      "##丁": 1713,
      "##阴": 1714,
      "##花": 1715,
      "##ө": 1716,
      "##™": 1717,
      "##ذ": 1718,
      "##字": 1719,
      "##ｔ": 1720,
      "##ｈ": 1721,
      "##ｅ": 1722,
      "##ｒ": 1723,
      "##主": 1724,
      "##ە": 1725,
      "##õ": 1726,
      "##ল": 1727,
      "##ट": 1728,
      "##；": 1729,
      "##｜": 1730,
      "##元": 1731,
      "##►": 1732,
      "##ﾃ": 1733,
      "##殤": 1734,
      "##話": 1735,
      "##制": 1736,
      "##כ": 1737,
      "##ү": 1738,
      "##と": 1739,
      "##い": 1740,
      "##‪": 1741,
      "##‎": 1742,
      "##你": 1743,
      "##基": 1744,
      "##尾": 1745,
      "##哦": 1746,
      "##ण": 1747,
      "##⎟": 1748,
      "##％": 1749,
      "##靜": 1750,
      "##電": 1751,
      "##產": 1752,
      "##裝": 1753,
      "##置": 1754,
      "##之": 1755,
      "##影": 1756,
      "##像": 1757,
      "##ώ": 1758,
      "##ئ": 1759,
      "##ξ": 1760,
      "##џ": 1761,
      "##啊": 1762,
      "##ɥ": 1763,
      "##达": 1764,
      "##❃": 1765,
      "##ۇ": 1766,
      "##ू": 1767,
      "##ʇ": 1768,
      "##ま": 1769,
      "##し": 1770,
      "##た": 1771,
      "##／": 1772,
      "##ட": 1773,
      "##க": 1774,
      "##ṛ": 1775,
      "##ً": 1776,
      "##ˈ": 1777,
      "##®": 1778,
      "##夜": 1779,
      "##為": 1780,
      "##與": 1781,
      "##質": 1782,
      "##光": 1783,
      "##മ": 1784,
      "##№": 1785,
      "##⎡": 1786,
      "##包": 1787,
      "##含": 1788,
      "##和": 1789,
      "##西": 1790,
      "##移": 1791,
      "##除": 1792,
      "##塗": 1793,
      "##抹": 1794,
      "##層": 1795,
      "##↓": 1796,
      "##φ": 1797,
      "##ū": 1798,
      "##̈": 1799,
      "##今": 1800,
      "##天": 1801,
      "##¹": 1802,
      "##⁶": 1803,
      "##马": 1804,
      "##营": 1805,
      "##河": 1806,
      "##؛": 1807,
      "##世": 1808,
      "##定": 1809,
      "##罪": 1810,
      "##ए": 1811,
      "##线": 1812,
      "##双": 1813,
      "##ɑ": 1814,
      "##算": 1815,
      "##ֱ": 1816,
      "##한": 1817,
      "##ɛ": 1818,
      "##增": 1819,
      "##助": 1820,
      "##宝": 1821,
      "##餐": 1822,
      "##椅": 1823,
      "##婴": 1824,
      "##外": 1825,
      "##ₖ": 1826,
      "##ę": 1827,
      "##设": 1828,
      "##◄": 1829,
      "##の": 1830,
      "##指": 1831,
      "##男": 1832,
      "##此": 1833,
      "##微": 1834,
      "##打": 1835,
      "##ㄣ": 1836,
      "##点": 1837,
      "##。": 1838,
      "##ˌ": 1839,
      "##ɪ": 1840,
      "##డ": 1841,
      "##і": 1842,
      "##¢": 1843,
      "##輸": 1844,
      "##ː": 1845,
      "##度": 1846,
      "##補": 1847,
      "##幕": 1848,
      "##依": 1849,
      "##ব": 1850,
      "##‾": 1851,
      "##إ": 1852,
      "##物": 1853,
      "##ʎ": 1854,
      "##→": 1855,
      "##插": 1856,
      "##师": 1857,
      "##秒": 1858,
      "##٠": 1859,
      "##¼": 1860,
      "##超": 1861,
      "##∑": 1862,
      "##了": 1863,
      "##↑": 1864,
      "##പ": 1865,
      "##⎤": 1866,
      "##⎣": 1867,
      "##›": 1868,
      "##东": 1869,
      "##氯": 1870,
      "##酸": 1871,
      "##鈉": 1872,
      "##ウ": 1873,
      "##解": 1874,
      "##お": 1875,
      "##ｕ": 1876,
      "##ｙ": 1877,
      "##ట": 1878,
      "##్": 1879,
      "##ख": 1880,
      "##य": 1881,
      "##प": 1882,
      "##⎞": 1883,
      "##✪": 1884,
      "##‿": 1885,
      "##가": 1886,
      "##《": 1887,
      "##▽": 1888,
      "##ｓ": 1889,
      "##ေ": 1890,
      "##း": 1891,
      "##व": 1892,
      "##ē": 1893,
      "##ī": 1894,
      "##ď": 1895,
      "##、": 1896,
      "##股": 1897,
      "##ग": 1898,
      "##드": 1899,
      "##❀": 1900,
      "##）": 1901,
      "##▄": 1902,
      "##フ": 1903,
      "##丨": 1904,
      "##ノ": 1905,
      "##치": 1906,
      "##系": 1907,
      "##छ": 1908,
      "##（": 1909,
      "##▎": 1910,
      "##▍": 1911,
      "##▌": 1912,
      "##▊": 1913,
      "##▉": 1914,
      "##‚": 1915,
      "##„": 1916,
      "##「": 1917,
      "##ज": 1918,
      "##再": 1919,
      "##،": 1920,
      "##？": 1921,
      "##➜": 1922,
      "##ζ": 1923,
      "##清": 1924,
      "##こ": 1925,
      "##٤": 1926,
      "##敌": 1927,
      "##簿": 1928,
      "##ラ": 1929,
      "##⇒": 1930,
      "##○": 1931,
      "##！": 1932,
      "##∗": 1933,
      "##」": 1934,
      "##ů": 1935,
      "##خ": 1936,
      "##▒": 1937,
      "##ĺ": 1938,
      "##비": 1939,
      "##ƃ": 1940,
      "##ʞ": 1941,
      "##च": 1942,
      "##த": 1943,
      "##ỡ": 1944,
      "##３": 1945,
      "##ň": 1946,
      "##ｃ": 1947,
      "##♡": 1948,
      "##¾": 1949,
      "##汉": 1950,
      "##转": 1951,
      "##让": 1952,
      "##英": 1953,
      "##✔": 1954,
      "##서": 1955,
      "##り": 1956,
      "##in": 1957,
      "##er": 1958,
      "##or": 1959,
      "##on": 1960,
      "##at": 1961,
      "##es": 1962,
      "##en": 1963,
      "in": 1964,
      "##el": 1965,
      "##et": 1966,
      "##al": 1967,
      "##ar": 1968,
      "##st": 1969,
      "##an": 1970,
      "##le": 1971,
      "##it": 1972,
      "##me": 1973,
      "##ct": 1974,
      "',": 1975,
      "##ro": 1976,
      "##mp": 1977,
      "()": 1978,
      "##ing": 1979,
      "##00": 1980,
      "sel": 1981,
      "##ut": 1982,
      "th": 1983,
      "self": 1984,
      "##--": 1985,
      "for": 1986,
      "##re": 1987,
      "##ion": 1988,
      "##as": 1989,
      "co": 1990,
      "st": 1991,
      "##ur": 1992,
      "##ed": 1993,
      "##ef": 1994,
      "##ent": 1995,
      "##th": 1996,
      "):": 1997,
      "##ort": 1998,
      "##ame": 1999,
      "re": 2000,
      "##int": 2001,
      "##ow": 2002,
      "to": 2003,
      "##se": 2004,
      "##un": 2005,
      "py": 2006,
      "##ex": 2007,
      "def": 2008,
      "fi": 2009,
      "##ist": 2010,
      "('": 2011,
      "imp": 2012,
      "##ue": 2013,
      "##um": 2014,
      "##ic": 2015,
      "import": 2016,
      "pr": 2017,
      "##ot": 2018,
      "the": 2019,
      "##ad": 2020,
      "dat": 2021,
      "##id": 2022,
      "##od": 2023,
      ">>": 2024,
      "')": 2025,
      ">>>": 2026,
      "if": 2027,
      "print": 2028,
      "##ge": 2029,
      "##est": 2030,
      "##ul": 2031,
      "##ac": 2032,
      "##thon": 2033,
      "##ra": 2034,
      "##pl": 2035,
      "##oo": 2036,
      "an": 2037,
      "':": 2038,
      "python": 2039,
      "##ter": 2040,
      "##ect": 2041,
      "##ate": 2042,
      "##rom": 2043,
      "cl": 2044,
      "ret": 2045,
      "##----": 2046,
      "##ass": 2047,
      "##ab": 2048,
      "##urn": 2049,
      "##em": 2050,
      "##..": 2051,
      "from": 2052,
      "ar": 2053,
      "return": 2054,
      "']": 2055,
      "con": 2056,
      "##pe": 2057,
      "##is": 2058,
      "##il": 2059,
      "val": 2060,
      "##and": 2061,
      "tr": 2062,
      "##ch": 2063,
      "of": 2064,
      "##ig": 2065,
      "##ime": 2066,
      "##ext": 2067,
      "ex": 2068,
      "))": 2069,
      "str": 2070,
      "##ess": 2071,
      "##up": 2072,
      "data": 2073,
      "##ip": 2074,
      "##__": 2075,
      "as": 2076,
      "##ine": 2077,
      "is": 2078,
      "##ser": 2079,
      "(\"": 2080,
      "get": 2081,
      "##pen": 2082,
      "ma": 2083,
      "##oc": 2084,
      "ch": 2085,
      "['": 2086,
      "##ma": 2087,
      "##01": 2088,
      "##ith": 2089,
      "__": 2090,
      "##am": 2091,
      "list": 2092,
      "##ey": 2093,
      "en": 2094,
      "##ce": 2095,
      "##ult": 2096,
      "di": 2097,
      "col": 2098,
      "\",": 2099,
      "it": 2100,
      "ap": 2101,
      "##ec": 2102,
      "##ind": 2103,
      "set": 2104,
      "##ver": 2105,
      "np": 2106,
      "##ile": 2107,
      "##ction": 2108,
      "##ol": 2109,
      "...": 2110,
      "res": 2111,
      "],": 2112,
      "class": 2113,
      "with": 2114,
      "10": 2115,
      "),": 2116,
      "##bj": 2117,
      "name": 2118,
      "and": 2119,
      "##om": 2120,
      "##ew": 2121,
      "]:": 2122,
      "##_c": 2123,
      "\")": 2124,
      "##ib": 2125,
      "my": 2126,
      "##iz": 2127,
      "##_d": 2128,
      "pro": 2129,
      "####": 2130,
      "##ation": 2131,
      "##ub": 2132,
      "##ord": 2133,
      "##_t": 2134,
      "##ay": 2135,
      "par": 2136,
      "##all": 2137,
      "df": 2138,
      "##one": 2139,
      "==": 2140,
      "##qu": 2141,
      "out": 2142,
      "##ve": 2143,
      "##name": 2144,
      "##_f": 2145,
      "##lo": 2146,
      "pl": 2147,
      "wh": 2148,
      "key": 2149,
      "##ath": 2150,
      "=\"": 2151,
      "##ange": 2152,
      "on": 2153,
      "line": 2154,
      "##im": 2155,
      "ad": 2156,
      "file": 2157,
      "])": 2158,
      "##put": 2159,
      "true": 2160,
      "##ype": 2161,
      "##gs": 2162,
      "text": 2163,
      "##==": 2164,
      "al": 2165,
      "##tt": 2166,
      "or": 2167,
      "201": 2168,
      "##_l": 2169,
      "value": 2170,
      "po": 2171,
      "int": 2172,
      "##_p": 2173,
      "sh": 2174,
      "##bject": 2175,
      "##if": 2176,
      "##ers": 2177,
      "##_s": 2178,
      "item": 2179,
      "com": 2180,
      "##ack": 2181,
      "time": 2182,
      "fil": 2183,
      "##ray": 2184,
      "##pt": 2185,
      "not": 2186,
      "##--------": 2187,
      "##able": 2188,
      "([": 2189,
      "how": 2190,
      "el": 2191,
      "sc": 2192,
      "mod": 2193,
      "id": 2194,
      "##art": 2195,
      "##unt": 2196,
      "12": 2197,
      "='": 2198,
      "none": 2199,
      "add": 2200,
      "##0000": 2201,
      "00": 2202,
      "row": 2203,
      "so": 2204,
      "ind": 2205,
      "string": 2206,
      "num": 2207,
      "fun": 2208,
      "lo": 2209,
      "test": 2210,
      "##ize": 2211,
      "mat": 2212,
      "cont": 2213,
      "user": 2214,
      "len": 2215,
      "form": 2216,
      "##ag": 2217,
      "##ff": 2218,
      "sub": 2219,
      "##ment": 2220,
      "##eld": 2221,
      "do": 2222,
      "new": 2223,
      "se": 2224,
      "##',": 2225,
      "##age": 2226,
      "object": 2227,
      "us": 2228,
      "##out": 2229,
      "##val": 2230,
      "##ml": 2231,
      "ur": 2232,
      "##cess": 2233,
      "##alse": 2234,
      "##us": 2235,
      "open": 2236,
      "##igh": 2237,
      "false": 2238,
      "\":": 2239,
      "un": 2240,
      "array": 2241,
      "##pend": 2242,
      "01": 2243,
      "##umn": 2244,
      "##ir": 2245,
      "yo": 2246,
      "##rit": 2247,
      "##str": 2248,
      "result": 2249,
      "##ore": 2250,
      "##\"\"": 2251,
      "ax": 2252,
      "##get": 2253,
      "##ace": 2254,
      "##ang": 2255,
      "read": 2256,
      "##99": 2257,
      "##ode": 2258,
      "rand": 2259,
      "11": 2260,
      "url": 2261,
      "append": 2262,
      "sy": 2263,
      "##roup": 2264,
      "##end": 2265,
      "column": 2266,
      "##ict": 2267,
      "start": 2268,
      "##ap": 2269,
      "##rame": 2270,
      "range": 2271,
      "index": 2272,
      "##ase": 2273,
      "jo": 2274,
      "##ock": 2275,
      "else": 2276,
      "##init": 2277,
      "##ues": 2278,
      "##ttp": 2279,
      "path": 2280,
      "##ber": 2281,
      "requ": 2282,
      "100": 2283,
      "():": 2284,
      "##oop": 2285,
      "##eth": 2286,
      "##plit": 2287,
      "##orm": 2288,
      "##//": 2289,
      "##ump": 2290,
      "we": 2291,
      "##ight": 2292,
      ").": 2293,
      "##per": 2294,
      "this": 2295,
      "be": 2296,
      "all": 2297,
      "##')": 2298,
      "##_b": 2299,
      "######": 2300,
      "http": 2301,
      "cre": 2302,
      "##ri": 2303,
      "foo": 2304,
      "group": 2305,
      "find": 2306,
      "writ": 2307,
      "split": 2308,
      "##sv": 2309,
      "</": 2310,
      "##file": 2311,
      "##ere": 2312,
      "##**": 2313,
      "##ata": 2314,
      "qu": 2315,
      "##plot": 2316,
      "lin": 2317,
      "sp": 2318,
      "##_m": 2319,
      "##ary": 2320,
      "##abel": 2321,
      "##init__": 2322,
      "__init__": 2323,
      "type": 2324,
      "he": 2325,
      "model": 2326,
      "function": 2327,
      "os": 2328,
      "request": 2329,
      "##ast": 2330,
      "##vent": 2331,
      "##])": 2332,
      "iter": 2333,
      "##etime": 2334,
      "())": 2335,
      "ro": 2336,
      "##ick": 2337,
      "','": 2338,
      "##ure": 2339,
      "var": 2340,
      "cur": 2341,
      "count": 2342,
      "##read": 2343,
      "comp": 2344,
      "##lib": 2345,
      "word": 2346,
      "15": 2347,
      "##tr": 2348,
      "20": 2349,
      "##_n": 2350,
      "plt": 2351,
      "values": 2352,
      "##amp": 2353,
      "##====": 2354,
      "random": 2355,
      "##os": 2356,
      "\"\"\"": 2357,
      "loop": 2358,
      "ima": 2359,
      "log": 2360,
      "##de": 2361,
      "input": 2362,
      "##ke": 2363,
      "can": 2364,
      "datetime": 2365,
      "##ool": 2366,
      "format": 2367,
      "##ice": 2368,
      "by": 2369,
      "end": 2370,
      "25": 2371,
      "##cl": 2372,
      "ele": 2373,
      "nump": 2374,
      "pd": 2375,
      "de": 2376,
      "##der": 2377,
      "13": 2378,
      "##ial": 2379,
      "##py": 2380,
      "args": 2381,
      "{'": 2382,
      "[]": 2383,
      "numpy": 2384,
      "##_list": 2385,
      "app": 2386,
      "nan": 2387,
      "##ton": 2388,
      "join": 2389,
      "##ty": 2390,
      "##ror": 2391,
      "##11": 2392,
      "csv": 2393,
      "##ance": 2394,
      "((": 2395,
      "##act": 2396,
      "##bd": 2397,
      "##und": 2398,
      "arg": 2399,
      "##xt": 2400,
      "##emp": 2401,
      "://": 2402,
      "##ield": 2403,
      "##utton": 2404,
      "up": 2405,
      "max": 2406,
      "date": 2407,
      "##iv": 2408,
      "##ly": 2409,
      "##_name": 2410,
      "14": 2411,
      "using": 2412,
      "16": 2413,
      "##ename": 2414,
      "##ach": 2415,
      "##tml": 2416,
      "bl": 2417,
      "##rip": 2418,
      "##ree": 2419,
      "ab": 2420,
      "ser": 2421,
      "##ies": 2422,
      "##ript": 2423,
      "sys": 2424,
      "##list": 2425,
      "pass": 2426,
      "200": 2427,
      "##pr": 2428,
      "number": 2429,
      "##ont": 2430,
      "'),": 2431,
      "##ork": 2432,
      "##_id": 2433,
      "##ign": 2434,
      "##ethod": 2435,
      "##ault": 2436,
      "main": 2437,
      "##pro": 2438,
      "loc": 2439,
      "##ain": 2440,
      ")]": 2441,
      "'],": 2442,
      "##ild": 2443,
      "you": 2444,
      "##bo": 2445,
      "dict": 2446,
      "wx": 2447,
      "##op": 2448,
      "##ator": 2449,
      "html": 2450,
      "+=": 2451,
      "##war": 2452,
      "##64": 2453,
      "##----------------": 2454,
      "##indow": 2455,
      "##ust": 2456,
      "##set": 2457,
      "##ory": 2458,
      "create": 2459,
      "per": 2460,
      "##ep": 2461,
      "##32": 2462,
      "**": 2463,
      "root": 2464,
      "##ther": 2465,
      "##rst": 2466,
      "##_w": 2467,
      "##key": 2468,
      "match": 2469,
      "##_in": 2470,
      "dj": 2471,
      "##uct": 2472,
      "##ave": 2473,
      "##ango": 2474,
      "txt": 2475,
      "##string": 2476,
      "label": 2477,
      "##eck": 2478,
      "##ition": 2479,
      "att": 2480,
      "##ask": 2481,
      "event": 2482,
      "output": 2483,
      "##cept": 2484,
      "##rap": 2485,
      "##iew": 2486,
      "30": 2487,
      "django": 2488,
      "##ery": 2489,
      "##ans": 2490,
      "##io": 2491,
      "sort": 2492,
      "image": 2493,
      "##\")": 2494,
      "first": 2495,
      "pos": 2496,
      "inst": 2497,
      "##ost": 2498,
      "write": 2499,
      "##33": 2500,
      "19": 2501,
      "lam": 2502,
      "field": 2503,
      "##ity": 2504,
      "##son": 2505,
      "comm": 2506,
      "##pon": 2507,
      "##ount": 2508,
      "##_r": 2509,
      "while": 2510,
      "##ive": 2511,
      "##],": 2512,
      "##main": 2513,
      "##['": 2514,
      "element": 2515,
      "##_o": 2516,
      "lambd": 2517,
      "qt": 2518,
      "call": 2519,
      "lambda": 2520,
      "ac": 2521,
      "##ute": 2522,
      "char": 2523,
      "##dict": 2524,
      "tk": 2525,
      "that": 2526,
      "some": 2527,
      "im": 2528,
      "reg": 2529,
      "[:": 2530,
      "mult": 2531,
      "size": 2532,
      "##av": 2533,
      "ext": 2534,
      "##rect": 2535,
      "at": 2536,
      "##form": 2537,
      "##eg": 2538,
      "##ant": 2539,
      "##ill": 2540,
      "del": 2541,
      "##par": 2542,
      "tw": 2543,
      "select": 2544,
      "].": 2545,
      "stat": 2546,
      "temp": 2547,
      ".,": 2548,
      "##ated": 2549,
      "sum": 2550,
      "run": 2551,
      "min": 2552,
      "##\",": 2553,
      "##ak": 2554,
      "##ames": 2555,
      "default": 2556,
      "##ix": 2557,
      "dt": 2558,
      "wid": 2559,
      "##arch": 2560,
      "##ient": 2561,
      "##our": 2562,
      "fl": 2563,
      "bar": 2564,
      "hel": 2565,
      "##frame": 2566,
      "##fo": 2567,
      "color": 2568,
      "##itle": 2569,
      "{}": 2570,
      "##ond": 2571,
      "bu": 2572,
      "##rid": 2573,
      "##_h": 2574,
      "std": 2575,
      "##ument": 2576,
      "##item": 2577,
      "##ample": 2578,
      "bo": 2579,
      "##34": 2580,
      "pre": 2581,
      "18": 2582,
      "conn": 2583,
      "head": 2584,
      "##ug": 2585,
      "dis": 2586,
      "your": 2587,
      "rec": 2588,
      "##ule": 2589,
      "no": 2590,
      "map": 2591,
      "attr": 2592,
      "17": 2593,
      "##ell": 2594,
      "dec": 2595,
      "().": 2596,
      "items": 2597,
      "22": 2598,
      "##12": 2599,
      "pand": 2600,
      "##ape": 2601,
      "load": 2602,
      "02": 2603,
      "plot": 2604,
      "##ry": 2605,
      "inter": 2606,
      "##ide": 2607,
      "pandas": 2608,
      "##row": 2609,
      "##loat": 2610,
      "fig": 2611,
      "show": 2612,
      "one": 2613,
      "##ook": 2614,
      "##ions": 2615,
      "##rent": 2616,
      "ra": 2617,
      "''": 2618,
      "bin": 2619,
      "button": 2620,
      "sec": 2621,
      "##ong": 2622,
      "##ponse": 2623,
      "content": 2624,
      "##ting": 2625,
      "use": 2626,
      "##ull": 2627,
      "method": 2628,
      "2015": 2629,
      "json": 2630,
      "check": 2631,
      "##_val": 2632,
      "##ove": 2633,
      "gen": 2634,
      "opt": 2635,
      "##66": 2636,
      "repl": 2637,
      "##error": 2638,
      "##gth": 2639,
      "##word": 2640,
      "##000": 2641,
      "thread": 2642,
      "##date": 2643,
      "##ence": 2644,
      "##index": 2645,
      "##ose": 2646,
      "except": 2647,
      "][": 2648,
      "##ql": 2649,
      "'])": 2650,
      "process": 2651,
      "table": 2652,
      "float": 2653,
      "##ite": 2654,
      "frame": 2655,
      "##sert": 2656,
      "##########": 2657,
      "\">": 2658,
      "db": 2659,
      "matplot": 2660,
      "##wargs": 2661,
      "aut": 2662,
      "filename": 2663,
      "matplotlib": 2664,
      "'}": 2665,
      "##inter": 2666,
      "parent": 2667,
      "zip": 2668,
      "try": 2669,
      "##min": 2670,
      "title": 2671,
      ");": 2672,
      "columns": 2673,
      "##_data": 2674,
      "##les": 2675,
      "[\"": 2676,
      "##so": 2677,
      "\"]": 2678,
      "##ession": 2679,
      "div": 2680,
      "[(": 2681,
      "##ens": 2682,
      "kwargs": 2683,
      "##ear": 2684,
      "##path": 2685,
      "##ui": 2686,
      "last": 2687,
      "##ram": 2688,
      "##10": 2689,
      "next": 2690,
      "search": 2691,
      "are": 2692,
      "filter": 2693,
      "##_st": 2694,
      "work": 2695,
      "##vel": 2696,
      "func": 2697,
      "current": 2698,
      "##_to": 2699,
      "##by": 2700,
      "vari": 2701,
      "##ools": 2702,
      "23": 2703,
      "has": 2704,
      "##own": 2705,
      "##_file": 2706,
      "rem": 2707,
      "tim": 2708,
      "24": 2709,
      "##fig": 2710,
      "##ail": 2711,
      "##lob": 2712,
      "connect": 2713,
      "code": 2714,
      "##56": 2715,
      "##ress": 2716,
      "##attr": 2717,
      "dataframe": 2718,
      "files": 2719,
      "window": 2720,
      "##erate": 2721,
      "##77": 2722,
      "spe": 2723,
      "param": 2724,
      "50": 2725,
      "le": 2726,
      "##ard": 2727,
      "(*": 2728,
      "]]": 2729,
      "##aa": 2730,
      "sup": 2731,
      "##ud": 2732,
      "post": 2733,
      "doc": 2734,
      "##sh": 2735,
      "21": 2736,
      "##atch": 2737,
      "##aut": 2738,
      "appl": 2739,
      "pack": 2740,
      "##</": 2741,
      "models": 2742,
      "##map": 2743,
      "query": 2744,
      "diction": 2745,
      "exec": 2746,
      "##ise": 2747,
      "//": 2748,
      "##========": 2749,
      "##88": 2750,
      "obj": 2751,
      "##ffer": 2752,
      "##ler": 2753,
      "other": 2754,
      "er": 2755,
      "conver": 2756,
      "03": 2757,
      "##essage": 2758,
      "part": 2759,
      "::": 2760,
      "bas": 2761,
      "0x": 2762,
      "into": 2763,
      "response": 2764,
      "##_re": 2765,
      "##sp": 2766,
      "li": 2767,
      "order": 2768,
      "##ld": 2769,
      "'\\": 2770,
      "trans": 2771,
      "red": 2772,
      "td": 2773,
      "##unter": 2774,
      "'))": 2775,
      "##enc": 2776,
      "##box": 2777,
      "me": 2778,
      "##ication": 2779,
      "lib": 2780,
      "##iter": 2781,
      "##50": 2782,
      "##atter": 2783,
      "##_ar": 2784,
      "two": 2785,
      "child": 2786,
      "##sc": 2787,
      "objects": 2788,
      "##data": 2789,
      "base": 2790,
      "xml": 2791,
      "[[": 2792,
      "##res": 2793,
      "04": 2794,
      "##process": 2795,
      "05": 2796,
      "##main__": 2797,
      "'.": 2798,
      "##raw": 2799,
      "exp": 2800,
      "2014": 2801,
      "__main__": 2802,
      "second": 2803,
      "close": 2804,
      "##wid": 2805,
      "prod": 2806,
      "multip": 2807,
      "##ax": 2808,
      "point": 2809,
      "##80": 2810,
      "timeit": 2811,
      "lines": 2812,
      "command": 2813,
      "##14": 2814,
      "grid": 2815,
      "(),": 2816,
      "script": 2817,
      "##_dict": 2818,
      "here": 2819,
      "--": 2820,
      "elif": 2821,
      "##24": 2822,
      "ne": 2823,
      "tot": 2824,
      "des": 2825,
      "##name__": 2826,
      "##****": 2827,
      "ms": 2828,
      "##line": 2829,
      "##tools": 2830,
      "cal": 2831,
      "##{'": 2832,
      "__name__": 2833,
      "dtype": 2834,
      "ph": 2835,
      "##ww": 2836,
      "node": 2837,
      "##ref": 2838,
      "\",\"": 2839,
      "replace": 2840,
      "make": 2841,
      "##ices": 2842,
      "update": 2843,
      "ut": 2844,
      "##que": 2845,
      "hand": 2846,
      "##ract": 2847,
      "##uple": 2848,
      "parse": 2849,
      "##89": 2850,
      "width": 2851,
      "best": 2852,
      "##late": 2853,
      "##gui": 2854,
      "##ating": 2855,
      "man": 2856,
      "strip": 2857,
      "!=": 2858,
      "##_v": 2859,
      "dictionary": 2860,
      "##54": 2861,
      "},": 2862,
      "##play": 2863,
      "##its": 2864,
      "tar": 2865,
      "fo": 2866,
      "##20": 2867,
      "axis": 2868,
      "enc": 2869,
      "colle": 2870,
      "##class": 2871,
      "##ctions": 2872,
      "})": 2873,
      "total": 2874,
      "www": 2875,
      "itertools": 2876,
      "##pes": 2877,
      "=[": 2878,
      "##_g": 2879,
      "##url": 2880,
      "##84": 2881,
      "counter": 2882,
      "##reak": 2883,
      "rel": 2884,
      "sql": 2885,
      "glob": 2886,
      "##sw": 2887,
      "##'.": 2888,
      "2013": 2889,
      "##57": 2890,
      "##back": 2891,
      "##ates": 2892,
      "local": 2893,
      "hello": 2894,
      "##eft": 2895,
      "link": 2896,
      "tag": 2897,
      "31": 2898,
      "=(": 2899,
      "pyg": 2900,
      "yield": 2901,
      "##_key": 2902,
      "x00": 2903,
      ")))": 2904,
      "et": 2905,
      "##ines": 2906,
      "##ph": 2907,
      "page": 2908,
      "spec": 2909,
      "09": 2910,
      "left": 2911,
      "pi": 2912,
      "##reen": 2913,
      "keys": 2914,
      "rows": 2915,
      "sorted": 2916,
      "40": 2917,
      "each": 2918,
      "##ally": 2919,
      "enum": 2920,
      "mon": 2921,
      "##izer": 2922,
      "day": 2923,
      "go": 2924,
      "sl": 2925,
      "##imp": 2926,
      "##22": 2927,
      "mo": 2928,
      "example": 2929,
      "##ert": 2930,
      "##ations": 2931,
      "##xx": 2932,
      "##cc": 2933,
      "1000": 2934,
      "break": 2935,
      "##cript": 2936,
      "##we": 2937,
      "config": 2938,
      "##30": 2939,
      "state": 2940,
      "27": 2941,
      "names": 2942,
      "##60": 2943,
      "module": 2944,
      "##col": 2945,
      "##field": 2946,
      "##rix": 2947,
      "##37": 2948,
      "##add": 2949,
      "##_index": 2950,
      "subprocess": 2951,
      "##59": 2952,
      "now": 2953,
      "##red": 2954,
      "fin": 2955,
      "##gg": 2956,
      "##_ch": 2957,
      "attrib": 2958,
      "34": 2959,
      "init": 2960,
      "32": 2961,
      "any": 2962,
      "over": 2963,
      "##ft": 2964,
      "message": 2965,
      "##bers": 2966,
      "send": 2967,
      "##87": 2968,
      "qtgui": 2969,
      "img": 2970,
      "##_1": 2971,
      "back": 2972,
      "dist": 2973,
      "su": 2974,
      "##ia": 2975,
      "##ower": 2976,
      "web": 2977,
      "##con": 2978,
      "shape": 2979,
      "##co": 2980,
      "').": 2981,
      "results": 2982,
      "view": 2983,
      "lst": 2984,
      "sock": 2985,
      "will": 2986,
      "##uld": 2987,
      "##raph": 2988,
      "##ning": 2989,
      "->": 2990,
      "##tk": 2991,
      "[-": 2992,
      "##@@": 2993,
      "##ement": 2994,
      "product": 2995,
      "##mail": 2996,
      "way": 2997,
      "save": 2998,
      "integ": 2999,
      "convert": 3000,
      "length": 3001,
      "af": 3002,
      "##og": 3003,
      "variable": 3004,
      "10000": 3005,
      "##rol": 3006,
      "top": 3007,
      "##mod": 3008,
      "##etter": 3009,
      "super": 3010,
      "##(?": 3011,
      "##port": 3012,
      "##67": 3013,
      "where": 3014,
      "%}": 3015,
      "pygame": 3016,
      "29": 3017,
      "##eta": 3018,
      "##ometh": 3019,
      "server": 3020,
      "error": 3021,
      "dir": 3022,
      "instance": 3023,
      "##omething": 3024,
      "##river": 3025,
      "##led": 3026,
      "##app": 3027,
      "target": 3028,
      "tree": 3029,
      "##ss": 3030,
      "##52": 3031,
      "07": 3032,
      "08": 3033,
      "am": 3034,
      "right": 3035,
      "play": 3036,
      "enumerate": 3037,
      "##range": 3038,
      "when": 3039,
      "##39": 3040,
      "stdout": 3041,
      "copy": 3042,
      "##_x": 3043,
      "words": 3044,
      "groupby": 3045,
      "remove": 3046,
      "cm": 3047,
      "##are": 3048,
      "##yn": 3049,
      "##ark": 3050,
      "'].": 3051,
      "##_y": 3052,
      "##bar": 3053,
      "26": 3054,
      "##...": 3055,
      "abc": 3056,
      "win": 3057,
      "soup": 3058,
      "000": 3059,
      "ed": 3060,
      "logg": 3061,
      "##ayout": 3062,
      "##unc": 3063,
      "##\\\\": 3064,
      "what": 3065,
      "##rc": 3066,
      "prog": 3067,
      "ref": 3068,
      "loops": 3069,
      "sour": 3070,
      "##ody": 3071,
      "##_pro": 3072,
      "##view": 3073,
      "client": 3074,
      "br": 3075,
      "##user": 3076,
      "##19": 3077,
      "##try": 3078,
      "beaut": 3079,
      "##ages": 3080,
      "##ags": 3081,
      "cor": 3082,
      "([[": 3083,
      "env": 3084,
      "act": 3085,
      "##iful": 3086,
      "##_col": 3087,
      "##uff": 3088,
      "##ich": 3089,
      "auth": 3090,
      "##))": 3091,
      "##ify": 3092,
      "##ete": 3093,
      "##ude": 3094,
      "beautiful": 3095,
      "##use": 3096,
      "##17": 3097,
      "##count": 3098,
      "##82": 3099,
      "##ken": 3100,
      "##_value": 3101,
      "urllib": 3102,
      "##_string": 3103,
      "fol": 3104,
      "emp": 3105,
      "session": 3106,
      "}}": 3107,
      "entry": 3108,
      "raw": 3109,
      "contain": 3110,
      "##perty": 3111,
      "argument": 3112,
      "##86": 3113,
      "##widget": 3114,
      "pa": 3115,
      "writer": 3116,
      "##attern": 3117,
      "sign": 3118,
      "year": 3119,
      "tkinter": 3120,
      "##55": 3121,
      "insert": 3122,
      "06": 3123,
      "charact": 3124,
      "[:,": 3125,
      "##\".": 3126,
      "regex": 3127,
      "##stance": 3128,
      "60": 3129,
      "only": 3130,
      "{%": 3131,
      "cls": 3132,
      "##44": 3133,
      "have": 3134,
      "draw": 3135,
      "height": 3136,
      "42": 3137,
      "##_2": 3138,
      "info": 3139,
      "##soup": 3140,
      "##00000000": 3141,
      "fill": 3142,
      "##load": 3143,
      "multiple": 3144,
      "(['": 3145,
      "display": 3146,
      "'''": 3147,
      "##ome": 3148,
      "cv": 3149,
      "off": 3150,
      "##36": 3151,
      "##_a": 3152,
      "ip": 3153,
      "##ner": 3154,
      "##9999": 3155,
      "sm": 3156,
      "##{}": 3157,
      "'):": 3158,
      "tuple": 3159,
      "##ustom": 3160,
      "enter": 3161,
      "beautifulsoup": 3162,
      "oper": 3163,
      "lists": 3164,
      "mem": 3165,
      ":]": 3166,
      "fe": 3167,
      "##ta": 3168,
      "##ima": 3169,
      "##ender": 3170,
      "##ng": 3171,
      "##ector": 3172,
      "##_input": 3173,
      "null": 3174,
      "##16": 3175,
      "pop": 3176,
      "##yle": 3177,
      "##gle": 3178,
      "direct": 3179,
      "##low": 3180,
      "need": 3181,
      "##oint": 3182,
      "##value": 3183,
      "extract": 3184,
      "28": 3185,
      "stop": 3186,
      "level": 3187,
      "##ead": 3188,
      "orig": 3189,
      "##ges": 3190,
      "parser": 3191,
      "##_num": 3192,
      "##_by": 3193,
      "source": 3194,
      "reader": 3195,
      "collections": 3196,
      "uni": 3197,
      "password": 3198,
      "usr": 3199,
      "##size": 3200,
      "##ateg": 3201,
      "option": 3202,
      "255": 3203,
      "##ie": 3204,
      "##upl": 3205,
      "does": 3206,
      "##--------------------------------": 3207,
      "##_path": 3208,
      "##bin": 3209,
      "##other": 3210,
      "##def": 3211,
      "##ank": 3212,
      "differ": 3213,
      "cho": 3214,
      "idx": 3215,
      "##ream": 3216,
      "same": 3217,
      "##_time": 3218,
      "(-": 3219,
      "email": 3220,
      "##element": 3221,
      "##ables": 3222,
      "after": 3223,
      "lat": 3224,
      "##ish": 3225,
      "##als": 3226,
      "change": 3227,
      "\".": 3228,
      "vers": 3229,
      "##ject": 3230,
      "##_type": 3231,
      "##vas": 3232,
      "##_url": 3233,
      "]])": 3234,
      "cle": 3235,
      "que": 3236,
      "header": 3237,
      "##_cl": 3238,
      "block": 3239,
      "##sor": 3240,
      "##df": 3241,
      "##ould": 3242,
      "position": 3243,
      "##_count": 3244,
      "##ifi": 3245,
      "##27": 3246,
      "context": 3247,
      "##ait": 3248,
      "##anel": 3249,
      "isin": 3250,
      "findall": 3251,
      "]))": 3252,
      "##90": 3253,
      "36": 3254,
      "host": 3255,
      "status": 3256,
      "span": 3257,
      "more": 3258,
      "sk": 3259,
      "<=": 3260,
      "byt": 3261,
      "body": 3262,
      "get_": 3263,
      "numbers": 3264,
      "something": 3265,
      "ass": 3266,
      "##max": 3267,
      "av": 3268,
      "template": 3269,
      "##rop": 3270,
      "non": 3271,
      "##eter": 3272,
      "long": 3273,
      "socket": 3274,
      "integer": 3275,
      "gener": 3276,
      "##enu": 3277,
      "matrix": 3278,
      "elements": 3279,
      "arr": 3280,
      "##andler": 3281,
      "custom": 3282,
      "##_con": 3283,
      "##unk": 3284,
      "mask": 3285,
      "cent": 3286,
      "##dir": 3287,
      "##object": 3288,
      "month": 3289,
      "pyplot": 3290,
      "raise": 3291,
      "##leep": 3292,
      "widget": 3293,
      "href": 3294,
      "##ible": 3295,
      "##stem": 3296,
      "##eet": 3297,
      "wrap": 3298,
      "##old": 3299,
      "org": 3300,
      "tmp": 3301,
      "##ength": 3302,
      "valid": 3303,
      "##core": 3304,
      "##....": 3305,
      "another": 3306,
      "##################": 3307,
      "##ale": 3308,
      "found": 3309,
      "utf": 3310,
      "there": 3311,
      "but": 3312,
      "##of": 3313,
      "##chem": 3314,
      "exit": 3315,
      "><": 3316,
      "xrange": 3317,
      "which": 3318,
      "want": 3319,
      "sleep": 3320,
      "##ords": 3321,
      "33": 3322,
      "##_of": 3323,
      "setup": 3324,
      "figure": 3325,
      "##ual": 3326,
      "##_set": 3327,
      "##array": 3328,
      "assert": 3329,
      "struct": 3330,
      "##image": 3331,
      "##ugh": 3332,
      "down": 3333,
      "##work": 3334,
      "apply": 3335,
      "45": 3336,
      "font": 3337,
      "pattern": 3338,
      "##vice": 3339,
      ")[": 3340,
      "username": 3341,
      "2016": 3342,
      "zer": 3343,
      "empty": 3344,
      ")):": 3345,
      "build": 3346,
      "pol": 3347,
      "##ical": 3348,
      "lower": 3349,
      "##ors": 3350,
      "##button": 3351,
      "35": 3352,
      "rect": 3353,
      "cond": 3354,
      "##ink": 3355,
      "##ah": 3356,
      "##round": 3357,
      "letter": 3358,
      "arange": 3359,
      "fields": 3360,
      "queue": 3361,
      "##40": 3362,
      "norm": 3363,
      "math": 3364,
      "##items": 3365,
      "##order": 3366,
      "##_size": 3367,
      "##_res": 3368,
      "document": 3369,
      "'/": 3370,
      "00000": 3371,
      "37": 3372,
      "goo": 3373,
      "##label": 3374,
      "compile": 3375,
      "access": 3376,
      "80": 3377,
      "##_text": 3378,
      "##etwe": 3379,
      "##_se": 3380,
      "##_e": 3381,
      "##_date": 3382,
      "##window": 3383,
      "canvas": 3384,
      "##gine": 3385,
      "##etween": 3386,
      "##unction": 3387,
      "version": 3388,
      "##ek": 3389,
      "##db": 3390,
      "##ush": 3391,
      "incl": 3392,
      "2012": 3393,
      "##13": 3394,
      "##97": 3395,
      "simp": 3396,
      "origin": 3397,
      "##erson": 3398,
      "attribute": 3399,
      "msg": 3400,
      "'-": 3401,
      "##ific": 3402,
      "like": 3403,
      "box": 3404,
      "rest": 3405,
      "calc": 3406,
      "isinstance": 3407,
      "expr": 3408,
      "##_fil": 3409,
      "defaultdict": 3410,
      "##pos": 3411,
      "##15": 3412,
      "##var": 3413,
      "##fil": 3414,
      "##text": 3415,
      "program": 3416,
      "##gin": 3417,
      "old": 3418,
      "requests": 3419,
      "##ider": 3420,
      "te": 3421,
      "score": 3422,
      "##types": 3423,
      "cmd": 3424,
      "help": 3425,
      "net": 3426,
      "\"))": 3427,
      "execute": 3428,
      "##lines": 3429,
      "##18": 3430,
      "cat": 3431,
      "44": 3432,
      "##ection": 3433,
      "src": 3434,
      "##type": 3435,
      "##side": 3436,
      "categ": 3437,
      "port": 3438,
      "task": 3439,
      "application": 3440,
      "gr": 3441,
      ",'": 3442,
      "users": 3443,
      "##ache": 3444,
      "##day": 3445,
      "##94": 3446,
      "static": 3447,
      "sample": 3448,
      "unique": 3449,
      "##az": 3450,
      "stack": 3451,
      "##vers": 3452,
      "cursor": 3453,
      "ter": 3454,
      "equ": 3455,
      "##del": 3456,
      "mean": 3457,
      "\\\\": 3458,
      "##ote": 3459,
      "##ash": 3460,
      "api": 3461,
      "##estamp": 3462,
      "setting": 3463,
      "##bl": 3464,
      "##ms": 3465,
      "home": 3466,
      "argv": 3467,
      "address": 3468,
      "exist": 3469,
      "\"/": 3470,
      "##test": 3471,
      "between": 3472,
      "mer": 3473,
      "dest": 3474,
      "##ok": 3475,
      "ag": 3476,
      "##af": 3477,
      "##96": 3478,
      "contin": 3479,
      "##orld": 3480,
      "google": 3481,
      "##anc": 3482,
      "click": 3483,
      "render": 3484,
      "ev": 3485,
      "##sl": 3486,
      "put": 3487,
      "##ster": 3488,
      "points": 3489,
      "store": 3490,
      "ty": 3491,
      "##utes": 3492,
      "property": 3493,
      "ca": 3494,
      "##num": 3495,
      "bind": 3496,
      "player": 3497,
      "system": 3498,
      "style": 3499,
      "global": 3500,
      "##_co": 3501,
      "strings": 3502,
      "cell": 3503,
      "##python": 3504,
      "action": 3505,
      "wait": 3506,
      "alph": 3507,
      "mark": 3508,
      ">=": 3509,
      "png": 3510,
      "##35": 3511,
      "('/": 3512,
      "##parse": 3513,
      "sent": 3514,
      "fr": 3515,
      "screen": 3516,
      "##ular": 3517,
      "##92": 3518,
      "\"\\": 3519,
      "##xy": 3520,
      "':'": 3521,
      "ast": 3522,
      "##sing": 3523,
      "##mb": 3524,
      "then": 3525,
      "##================": 3526,
      "fre": 3527,
      "location": 3528,
      "##cont": 3529,
      "##})": 3530,
      "login": 3531,
      "'},": 3532,
      "##_str": 3533,
      "##book": 3534,
      "##irect": 3535,
      "'>": 3536,
      "person": 3537,
      "##sum": 3538,
      "##──": 3539,
      "weight": 3540,
      "]+": 3541,
      "##ension": 3542,
      "ent": 3543,
      "graph": 3544,
      "##rib": 3545,
      "##85": 3546,
      "initial": 3547,
      "##mit": 3548,
      "##swith": 3549,
      "directory": 3550,
      "90": 3551,
      "high": 3552,
      "##any": 3553,
      "47": 3554,
      "pub": 3555,
      "##nel": 3556,
      "pair": 3557,
      "##imal": 3558,
      "\":\"": 3559,
      "##ative": 3560,
      "##_all": 3561,
      "logging": 3562,
      "##uc": 3563,
      "']]": 3564,
      "=['": 3565,
      "##_th": 3566,
      "##verse": 3567,
      "()[": 3568,
      "prev": 3569,
      "seq": 3570,
      "inc": 3571,
      "##62": 3572,
      "pool": 3573,
      "...:": 3574,
      "abs": 3575,
      "{\"": 3576,
      "##********": 3577,
      "step": 3578,
      "'%": 3579,
      "##cription": 3580,
      "##ired": 3581,
      "##_ex": 3582,
      "giv": 3583,
      "##_mod": 3584,
      "##": 3585,
      "></": 3586,
      "deb": 3587,
      "without": 3588,
      "df1": 3589,
      "##ren": 3590,
      "##02": 3591,
      "condition": 3592,
      "encod": 3593,
      "choice": 3594,
      "https": 3595,
      "64": 3596,
      "headers": 3597,
      "##very": 3598,
      "##print": 3599,
      "install": 3600,
      "sin": 3601,
      "##ipy": 3602,
      "chunk": 3603,
      "##ager": 3604,
      "##('": 3605,
      "driver": 3606,
      "based": 3607,
      "just": 3608,
      "55": 3609,
      "('\\": 3610,
      "##_cont": 3611,
      "##ested": 3612,
      "54": 3613,
      "project": 3614,
      "car": 3615,
      "ns": 3616,
      "'',": 3617,
      "##nt": 3618,
      "##.*": 3619,
      "##ments": 3620,
      "different": 3621,
      "##urs": 3622,
      "##time": 3623,
      "();": 3624,
      "handle": 3625,
      "##oid": 3626,
      "##ps": 3627,
      "##ped": 3628,
      "##_length": 3629,
      "bot": 3630,
      "unit": 3631,
      "x1": 3632,
      "##ik": 3633,
      "##bb": 3634,
      "panel": 3635,
      "2000": 3636,
      "delete": 3637,
      "##idd": 3638,
      "##ii": 3639,
      "##icode": 3640,
      "##loop": 3641,
      ")),": 3642,
      "sol": 3643,
      "world": 3644,
      "look": 3645,
      ":\\": 3646,
      "##odes": 3647,
      "operator": 3648,
      "most": 3649,
      "brow": 3650,
      "##pace": 3651,
      "rad": 3652,
      "##abase": 3653,
      "39": 3654,
      "##ling": 3655,
      "##qt": 3656,
      "calcul": 3657,
      "##model": 3658,
      "##ping": 3659,
      "##gn": 3660,
      "scipy": 3661,
      "urllib2": 3662,
      "tra": 3663,
      "ge": 3664,
      "sing": 3665,
      "xpath": 3666,
      "gu": 3667,
      "df2": 3668,
      "]),": 3669,
      "combin": 3670,
      "raw_input": 3671,
      "##omm": 3672,
      "')]": 3673,
      "qtcore": 3674,
      "##imit": 3675,
      "[('": 3676,
      "gtk": 3677,
      "##04": 3678,
      "2011": 3679,
      "##oad": 3680,
      "##uble": 3681,
      "dump": 3682,
      "randint": 3683,
      "times": 3684,
      "##space": 3685,
      "[['": 3686,
      "center": 3687,
      "original": 3688,
      "##server": 3689,
      "series": 3690,
      "diff": 3691,
      "scra": 3692,
      "threading": 3693,
      "({'": 3694,
      "timestamp": 3695,
      "pick": 3696,
      "multi": 3697,
      "##ire": 3698,
      "continue": 3699,
      "admin": 3700,
      "hash": 3701,
      "det": 3702,
      "sequ": 3703,
      "axes": 3704,
      "regist": 3705,
      "##_user": 3706,
      "##hape": 3707,
      "##dd": 3708,
      "chang": 3709,
      "connection": 3710,
      "const": 3711,
      "##rary": 3712,
      "boo": 3713,
      "75": 3714,
      "cv2": 3715,
      "99": 3716,
      "'<": 3717,
      "56": 3718,
      "##31": 3719,
      "##ov": 3720,
      "##rough": 3721,
      "##xml": 3722,
      "##_form": 3723,
      "##efore": 3724,
      "sw": 3725,
      "conc": 3726,
      ",-": 3727,
      "stdin": 3728,
      "##ource": 3729,
      "site": 3730,
      "character": 3731,
      "returns": 3732,
      "specific": 3733,
      "job": 3734,
      "##_par": 3735,
      "\"%": 3736,
      "refer": 3737,
      ",\"": 3738,
      "dig": 3739,
      "art": 3740,
      "],[": 3741,
      "vector": 3742,
      "##},": 3743,
      "##ium": 3744,
      "\").": 3745,
      "tick": 3746,
      "#!": 3747,
      "answ": 3748,
      "##@@@@": 3749,
      "##38": 3750,
      "##ground": 3751,
      "##_sub": 3752,
      "##not": 3753,
      "subplot": 3754,
      "drop": 3755,
      "debug": 3756,
      "record": 3757,
      "should": 3758,
      "met": 3759,
      "##_array": 3760,
      "full": 3761,
      "stuff": 3762,
      "normal": 3763,
      "##cle": 3764,
      ":%": 3765,
      "serial": 3766,
      "simple": 3767,
      "##ature": 3768,
      "##_out": 3769,
      "]*": 3770,
      "##parser": 3771,
      "##ets": 3772,
      "note": 3773,
      "##mt": 3774,
      "##(\\": 3775,
      "57": 3776,
      "##ution": 3777,
      "##{\"": 3778,
      "category": 3779,
      "popen": 3780,
      "pipe": 3781,
      "include": 3782,
      "mylist": 3783,
      "than": 3784,
      "##28": 3785,
      "seconds": 3786,
      "through": 3787,
      "##ake": 3788,
      "##ents": 3789,
      "running": 3790,
      "##gb": 3791,
      "##axis": 3792,
      "fn": 3793,
      "....": 3794,
      "##chemy": 3795,
      "stringio": 3796,
      "46": 3797,
      "master": 3798,
      "##ift": 3799,
      "elem": 3800,
      "49": 3801,
      "38": 3802,
      "300": 3803,
      "rb": 3804,
      "xy": 3805,
      "##---": 3806,
      "hour": 3807,
      "tab": 3808,
      "##point": 3809,
      "repe": 3810,
      "67": 3811,
      "xl": 3812,
      "ctypes": 3813,
      "##),": 3814,
      "nested": 3815,
      "options": 3816,
      "description": 3817,
      "##etch": 3818,
      "##ings": 3819,
      "every": 3820,
      "case": 3821,
      "done": 3822,
      "##alchemy": 3823,
      "##ected": 3824,
      "stream": 3825,
      "##elist": 3826,
      "variables": 3827,
      "ke": 3828,
      "flask": 3829,
      "48": 3830,
      "##pg": 3831,
      "days": 3832,
      "##ian": 3833,
      "##_function": 3834,
      "move": 3835,
      "##_add": 3836,
      "##ures": 3837,
      "params": 3838,
      "##cho": 3839,
      "+)": 3840,
      "ver": 3841,
      "52": 3842,
      "age": 3843,
      "##47": 3844,
      "given": 3845,
      "##lic": 3846,
      "callback": 3847,
      "pyqt": 3848,
      "fact": 3849,
      "meta": 3850,
      "generate": 3851,
      "arguments": 3852,
      "##''": 3853,
      "70": 3854,
      "##_row": 3855,
      "##aces": 3856,
      "vert": 3857,
      "was": 3858,
      "reshape": 3859,
      "123": 3860,
      "clean": 3861,
      "sqlalchemy": 3862,
      "many": 3863,
      "2010": 3864,
      "##ee": 3865,
      "##to": 3866,
      "##ified": 3867,
      "500": 3868,
      "##info": 3869,
      "##face": 3870,
      "before": 3871,
      "signal": 3872,
      "quest": 3873,
      "##ade": 3874,
      "download": 3875,
      "##te": 3876,
      "fore": 3877,
      "settings": 3878,
      "##method": 3879,
      "bit": 3880,
      "gre": 3881,
      "##code": 3882,
      "-%": 3883,
      "##_class": 3884,
      "##cel": 3885,
      "##bu": 3886,
      "database": 3887,
      "offset": 3888,
      "prob": 3889,
      "59": 3890,
      "menu": 3891,
      "cp": 3892,
      "scrapy": 3893,
      "mainloop": 3894,
      "##zip": 3895,
      "token": 3896,
      "getattr": 3897,
      "##loc": 3898,
      "jav": 3899,
      "blue": 3900,
      "43": 3901,
      "#!/": 3902,
      "##____": 3903,
      "mov": 3904,
      "##log": 3905,
      "##resh": 3906,
      "op": 3907,
      "bytes": 3908,
      "answer": 3909,
      "##_field": 3910,
      "med": 3911,
      "##_dir": 3912,
      "##query": 3913,
      "##ules": 3914,
      "price": 3915,
      "mode": 3916,
      "win32": 3917,
      "##tom": 3918,
      "##att": 3919,
      "##quest": 3920,
      "may": 3921,
      "##_object": 3922,
      "pref": 3923,
      "##\"\"\"": 3924,
      "##rt": 3925,
      "##[^": 3926,
      "decor": 3927,
      "pk": 3928,
      "cy": 3929,
      "##25": 3930,
      "##ics": 3931,
      "io": 3932,
      "]],": 3933,
      "dot": 3934,
      "engine": 3935,
      "('.": 3936,
      "follow": 3937,
      "##ries": 3938,
      "prim": 3939,
      "##ious": 3940,
      "##level": 3941,
      "##_wid": 3942,
      "199": 3943,
      "41": 3944,
      "sav": 3945,
      "##delta": 3946,
      "##{{": 3947,
      "##for": 3948,
      "##util": 3949,
      "webd": 3950,
      "=>": 3951,
      "single": 3952,
      "##ux": 3953,
      "##wd": 3954,
      "mys": 3955,
      "vis": 3956,
      "##ns": 3957,
      "##uce": 3958,
      "dev": 3959,
      "webdriver": 3960,
      "indices": 3961,
      "##_line": 3962,
      "etree": 3963,
      "bool": 3964,
      ")])": 3965,
      "##layout": 3966,
      "labels": 3967,
      "groups": 3968,
      "wb": 3969,
      "unicode": 3970,
      "##_number": 3971,
      "created": 3972,
      "zeros": 3973,
      "000000": 3974,
      "/>": 3975,
      "##handler": 3976,
      "##_csv": 3977,
      "##lab": 3978,
      "##ely": 3979,
      "characters": 3980,
      "pip": 3981,
      "don": 3982,
      "##ized": 3983,
      "##auth": 3984,
      "##_element": 3985,
      "pprint": 3986,
      "extend": 3987,
      "x0": 3988,
      "##26": 3989,
      "##icate": 3990,
      "##rypt": 3991,
      "##lex": 3992,
      "cod": 3993,
      "poss": 3994,
      "pad": 3995,
      "##70": 3996,
      "tags": 3997,
      "expression": 3998,
      "reset": 3999,
      "##width": 4000,
      "game": 4001,
      "shell": 4002,
      "used": 4003,
      "##let": 4004,
      "its": 4005,
      "ob": 4006,
      "images": 4007,
      "cols": 4008,
      "1234": 4009,
      "expand": 4010,
      "hist": 4011,
      "children": 4012,
      "bs": 4013,
      "##_from": 4014,
      "skip": 4015,
      "forms": 4016,
      "double": 4017,
      "team": 4018,
      "big": 4019,
      "stor": 4020,
      "delim": 4021,
      "keep": 4022,
      "##tn": 4023,
      "cr": 4024,
      "mp": 4025,
      "##her": 4026,
      "##29": 4027,
      "mak": 4028,
      "##reg": 4029,
      "contains": 4030,
      "##rocess": 4031,
      "##thing": 4032,
      "##input": 4033,
      "apple": 4034,
      "##_func": 4035,
      "##ars": 4036,
      "perm": 4037,
      "folder": 4038,
      "functions": 4039,
      "inf": 4040,
      "startswith": 4041,
      "##ences": 4042,
      "##hn": 4043,
      "fast": 4044,
      "##med": 4045,
      "##pol": 4046,
      "reverse": 4047,
      "repr": 4048,
      "##_pos": 4049,
      "called": 4050,
      "ok": 4051,
      "timedelta": 4052,
      "stud": 4053,
      "a1": 4054,
      "inside": 4055,
      "##_j": 4056,
      "nd": 4057,
      "eval": 4058,
      "hex": 4059,
      "##iron": 4060,
      "##eight": 4061,
      "##roll": 4062,
      "lar": 4063,
      "allow": 4064,
      "##call": 4065,
      "pdf": 4066,
      "mock": 4067,
      "##func": 4068,
      "iteritems": 4069,
      "city": 4070,
      "##host": 4071,
      "##case": 4072,
      "ign": 4073,
      "hi": 4074,
      "##enium": 4075,
      "acc": 4076,
      "quit": 4077,
      "edit": 4078,
      "multiprocess": 4079,
      "concat": 4080,
      "##struct": 4081,
      "##ll": 4082,
      "python2": 4083,
      "buffer": 4084,
      ")/": 4085,
      "##ync": 4086,
      "##_table": 4087,
      "rout": 4088,
      "selenium": 4089,
      "##iss": 4090,
      "layout": 4091,
      "()]": 4092,
      "poly": 4093,
      "sq": 4094,
      "asc": 4095,
      "ordered": 4096,
      "##ency": 4097,
      "(?": 4098,
      "sequence": 4099,
      "register": 4100,
      "gl": 4101,
      "##ically": 4102,
      "__get": 4103,
      "matches": 4104,
      "##(?:": 4105,
      "lxml": 4106,
      "alpha": 4107,
      "##ob": 4108,
      "##orn": 4109,
      "##58": 4110,
      "ws": 4111,
      "valueerror": 4112,
      "jpg": 4113,
      "++": 4114,
      "##eters": 4115,
      "##_tr": 4116,
      "green": 4117,
      ")+": 4118,
      "pix": 4119,
      "x2": 4120,
      ".',": 4121,
      "##\">": 4122,
      "##formation": 4123,
      "##98": 4124,
      "lang": 4125,
      "chain": 4126,
      ":])": 4127,
      "list1": 4128,
      "##appl": 4129,
      "##ret": 4130,
      "##man": 4131,
      "assign": 4132,
      "multiprocessing": 4133,
      "##pack": 4134,
      "coord": 4135,
      "timeout": 4136,
      "##zz": 4137,
      "keyword": 4138,
      "##_values": 4139,
      "decimal": 4140,
      "##cent": 4141,
      "colors": 4142,
      ")*": 4143,
      "<<": 4144,
      "side": 4145,
      "##my": 4146,
      "etc": 4147,
      "##annel": 4148,
      "round": 4149,
      "comment": 4150,
      "final": 4151,
      "binary": 4152,
      "author": 4153,
      "control": 4154,
      "f1": 4155,
      "..": 4156,
      "\"],": 4157,
      "##imum": 4158,
      "##uples": 4159,
      "foreign": 4160,
      "dep": 4161,
      "exception": 4162,
      "baz": 4163,
      "##verage": 4164,
      "proc": 4165,
      "s1": 4166,
      "\"])": 4167,
      "aw": 4168,
      "cache": 4169,
      "windows": 4170,
      "browser": 4171,
      "encode": 4172,
      "##ores": 4173,
      "three": 4174,
      "merge": 4175,
      "encoding": 4176,
      "##rite": 4177,
      "john": 4178,
      "##1111": 4179,
      "##_args": 4180,
      "country": 4181,
      "upper": 4182,
      "\"<": 4183,
      "##ous": 4184,
      "51": 4185,
      "decode": 4186,
      "sim": 4187,
      "##down": 4188,
      "yes": 4189,
      "##sed": 4190,
      "nl": 4191,
      "within": 4192,
      "pe": 4193,
      "{{": 4194,
      "##action": 4195,
      "(',": 4196,
      "##76": 4197,
      "dates": 4198,
      "why": 4199,
      "separ": 4200,
      "fetch": 4201,
      "##ts": 4202,
      "##23": 4203,
      "place": 4204,
      "##event": 4205,
      "##_for": 4206,
      "101": 4207,
      "cir": 4208,
      "contents": 4209,
      "##ring": 4210,
      "spam": 4211,
      "correct": 4212,
      "##lopen": 4213,
      "eff": 4214,
      "##3333": 4215,
      "\"\"": 4216,
      "p1": 4217,
      "65": 4218,
      "fit": 4219,
      "xs": 4220,
      "linspace": 4221,
      "##_int": 4222,
      "possible": 4223,
      "kn": 4224,
      "##na": 4225,
      "them": 4226,
      "background": 4227,
      "environ": 4228,
      "repeat": 4229,
      "##nd": 4230,
      "\"),": 4231,
      "delimiter": 4232,
      "dyn": 4233,
      "##ails": 4234,
      "##alk": 4235,
      "infile": 4236,
      "##ins": 4237,
      "##color": 4238,
      "##_code": 4239,
      "##icks": 4240,
      "set_": 4241,
      "black": 4242,
      "trace": 4243,
      "low": 4244,
      "dim": 4245,
      "()))": 4246,
      "##3d": 4247,
      "domain": 4248,
      "urlopen": 4249,
      "aa": 4250,
      "creating": 4251,
      "cd": 4252,
      "common": 4253,
      ".],": 4254,
      "real": 4255,
      "clos": 4256,
      "##gi": 4257,
      "##95": 4258,
      "begin": 4259,
      ".'": 4260,
      "transform": 4261,
      "##env": 4262,
      "good": 4263,
      "suc": 4264,
      "##derr": 4265,
      "##21": 4266,
      "##atrix": 4267,
      "({": 4268,
      "##lement": 4269,
      "short": 4270,
      "conf": 4271,
      "library": 4272,
      "##angle": 4273,
      "##81": 4274,
      "ord": 4275,
      "400": 4276,
      "##74": 4277,
      "##ived": 4278,
      "''.": 4279,
      "cert": 4280,
      "mar": 4281,
      "##over": 4282,
      "amount": 4283,
      "##ined": 4284,
      "##net": 4285,
      "book": 4286,
      "##ys": 4287,
      "sch": 4288,
      "##mbol": 4289,
      "##tree": 4290,
      "##valid": 4291,
      "111": 4292,
      "##older": 4293,
      "##s_": 4294,
      "##ted": 4295,
      "c1": 4296,
      "white": 4297,
      "freq": 4298,
      "001": 4299,
      "##65": 4300,
      "distance": 4301,
      "53": 4302,
      "##stack": 4303,
      "ple": 4304,
      "see": 4305,
      "echo": 4306,
      "##queue": 4307,
      "##_info": 4308,
      "inner": 4309,
      "leg": 4310,
      "##83": 4311,
      "##_arg": 4312,
      "##ared": 4313,
      "##_test": 4314,
      "urls": 4315,
      "##aaaa": 4316,
      "##aries": 4317,
      "sn": 4318,
      "blah": 4319,
      "limit": 4320,
      "##ume": 4321,
      "cook": 4322,
      "shift": 4323,
      "##_with": 4324,
      "##icle": 4325,
      "writerow": 4326,
      "##obj": 4327,
      "##getter": 4328,
      "##ware": 4329,
      "define": 4330,
      "##_names": 4331,
      "74": 4332,
      "##_on": 4333,
      "sets": 4334,
      "t1": 4335,
      "patch": 4336,
      "(\"\\": 4337,
      "##_loc": 4338,
      "##ged": 4339,
      "recurs": 4340,
      "memory": 4341,
      "##100": 4342,
      "align": 4343,
      "##_label": 4344,
      "bound": 4345,
      "f2": 4346,
      "##iddle": 4347,
      "97": 4348,
      "##esent": 4349,
      "##ommand": 4350,
      "question": 4351,
      "##application": 4352,
      "upl": 4353,
      "##icient": 4354,
      "##ision": 4355,
      "chr": 4356,
      "dynam": 4357,
      "##eader": 4358,
      "prefix": 4359,
      "66": 4360,
      "public": 4361,
      "upd": 4362,
      "both": 4363,
      "##new": 4364,
      "sep": 4365,
      "space": 4366,
      "getting": 4367,
      "##ger": 4368,
      "please": 4369,
      "##els": 4370,
      "types": 4371,
      "small": 4372,
      "##_pr": 4373,
      "upload": 4374,
      "##ilt": 4375,
      ".]": 4376,
      "##do": 4377,
      "inv": 4378,
      ">,": 4379,
      ")-": 4380,
      "fname": 4381,
      "timer": 4382,
      "s2": 4383,
      "\"):": 4384,
      "sig": 4385,
      "y1": 4386,
      "primary": 4387,
      "##pec": 4388,
      "stderr": 4389,
      "##ities": 4390,
      "##ready": 4391,
      "77": 4392,
      "##iod": 4393,
      "war": 4394,
      "account": 4395,
      ".\"": 4396,
      "##ca": 4397,
      "##_start": 4398,
      "logger": 4399,
      "##tern": 4400,
      "guess": 4401,
      "cs": 4402,
      "##page": 4403,
      "outfile": 4404,
      "counts": 4405,
      "'+": 4406,
      "##cp": 4407,
      "profile": 4408,
      "extra": 4409,
      "auto": 4410,
      "mysql": 4411,
      "success": 4412,
      "submit": 4413,
      "charfield": 4414,
      "##_new": 4415,
      "ident": 4416,
      "##cur": 4417,
      "##_map": 4418,
      "replac": 4419,
      "##names": 4420,
      "##ds": 4421,
      "proper": 4422,
      "##flow": 4423,
      "##edit": 4424,
      "named": 4425,
      "exists": 4426,
      "fp": 4427,
      "##ances": 4428,
      ">\",": 4429,
      "'')": 4430,
      "execut": 4431,
      "##lim": 4432,
      "('%": 4433,
      "mouse": 4434,
      "##root": 4435,
      "c2": 4436,
      "##ocol": 4437,
      "76": 4438,
      "again": 4439,
      "##tle": 4440,
      "decorator": 4441,
      "(...": 4442,
      "lock": 4443,
      "pickle": 4444,
      "bottom": 4445,
      "##cond": 4446,
      "core": 4447,
      "##eric": 4448,
      "arrays": 4449,
      "iterable": 4450,
      "##board": 4451,
      "capt": 4452,
      "##ese": 4453,
      "attributes": 4454,
      "week": 4455,
      "finish": 4456,
      "##mem": 4457,
      "la": 4458,
      "must": 4459,
      "##place": 4460,
      "##rl": 4461,
      "={'": 4462,
      "##show": 4463,
      "##tp": 4464,
      "##left": 4465,
      ")).": 4466,
      "thing": 4467,
      "handler": 4468,
      "speed": 4469,
      "nodes": 4470,
      "worker": 4471,
      "##attrib": 4472,
      "##101": 4473,
      "##rames": 4474,
      "58": 4475,
      "dupl": 4476,
      "##_iter": 4477,
      "##grid": 4478,
      "##iff": 4479,
      "desc": 4480,
      "information": 4481,
      "##_token": 4482,
      "parameters": 4483,
      "ts": 4484,
      "##ays": 4485,
      "wrapper": 4486,
      "would": 4487,
      "##567": 4488,
      "insp": 4489,
      "##px": 4490,
      "prot": 4491,
      "##riter": 4492,
      "[{'": 4493,
      "previous": 4494,
      "##?)": 4495,
      "a2": 4496,
      "xxx": 4497,
      "sqlite": 4498,
      "astype": 4499,
      "86": 4500,
      "js": 4501,
      "##omet": 4502,
      "occ": 4503,
      "##ories": 4504,
      "xx": 4505,
      "'\"": 4506,
      "##api": 4507,
      "nx": 4508,
      "94": 4509,
      "stats": 4510,
      "##']": 4511,
      "remov": 4512,
      "[:-": 4513,
      "clear": 4514,
      "rol": 4515,
      "rece": 4516,
      "symbol": 4517,
      "accept": 4518,
      "comb": 4519,
      "sqrt": 4520,
      "pid": 4521,
      "##sub": 4522,
      "##ird": 4523,
      "##........": 4524,
      "##_result": 4525,
      "combinations": 4526,
      "adding": 4527,
      "##default": 4528,
      "channel": 4529,
      "tool": 4530,
      "sentence": 4531,
      "squ": 4532,
      "rank": 4533,
      "packages": 4534,
      "[@": 4535,
      "##admin": 4536,
      "##rows": 4537,
      "##_item": 4538,
      "ow": 4539,
      "average": 4540,
      "ps": 4541,
      "d1": 4542,
      "int64": 4543,
      "err": 4544,
      "section": 4545,
      "##_method": 4546,
      "##strip": 4547,
      "##ization": 4548,
      ">\\": 4549,
      "'(": 4550,
      "##_temp": 4551,
      "methods": 4552,
      "readlines": 4553,
      "radi": 4554,
      "##06": 4555,
      "##ams": 4556,
      "coordin": 4557,
      "parameter": 4558,
      "##uration": 4559,
      "tuples": 4560,
      "activ": 4561,
      "ax1": 4562,
      "regular": 4563,
      ")',": 4564,
      "87": 4565,
      "##sole": 4566,
      "mac": 4567,
      "required": 4568,
      "redirect": 4569,
      "foreignkey": 4570,
      "72": 4571,
      "##_sh": 4572,
      "[],": 4573,
      "p2": 4574,
      "##ater": 4575,
      "##esh": 4576,
      "95": 4577,
      "cos": 4578,
      "got": 4579,
      "##lass": 4580,
      "rot": 4581,
      "report": 4582,
      "myclass": 4583,
      "student": 4584,
      "boost": 4585,
      "dic": 4586,
      "seen": 4587,
      "##doc": 4588,
      "##irt": 4589,
      ")],": 4590,
      "##args": 4591,
      "flag": 4592,
      "calculate": 4593,
      "##com": 4594,
      "tak": 4595,
      "termin": 4596,
      "route": 4597,
      ":\",": 4598,
      "interval": 4599,
      "ul": 4600,
      "##atus": 4601,
      "slice": 4602,
      "##_frame": 4603,
      "tests": 4604,
      "##################################": 4605,
      "argparse": 4606,
      "rgb": 4607,
      "##kt": 4608,
      "##ites": 4609,
      "subplots": 4610,
      "selected": 4611,
      "##_call": 4612,
      "scale": 4613,
      "fa": 4614,
      "##_var": 4615,
      "__dict": 4616,
      "96": 4617,
      "mess": 4618,
      "cap": 4619,
      "ix": 4620,
      "ascii": 4621,
      "##_un": 4622,
      "evt": 4623,
      "....:": 4624,
      "cmap": 4625,
      "-=": 4626,
      "84": 4627,
      "##ifier": 4628,
      "working": 4629,
      "__dict__": 4630,
      "##no": 4631,
      "##thread": 4632,
      "sur": 4633,
      "vide": 4634,
      "##_range": 4635,
      "zero": 4636,
      "'^": 4637,
      "d2": 4638,
      "xe": 4639,
      "namespace": 4640,
      "incre": 4641,
      "da": 4642,
      "python3": 4643,
      "void": 4644,
      "##ev": 4645,
      "dd": 4646,
      "max_length": 4647,
      "reference": 4648,
      "inspect": 4649,
      "sizer": 4650,
      "##_view": 4651,
      "attrs": 4652,
      "reading": 4653,
      "##cd": 4654,
      "##table": 4655,
      "),(": 4656,
      "agg": 4657,
      "ipython": 4658,
      "ui": 4659,
      "}'.": 4660,
      "##gh": 4661,
      "instead": 4662,
      "service": 4663,
      "network": 4664,
      "dumps": 4665,
      "98": 4666,
      "##_up": 4667,
      "##lish": 4668,
      "nb": 4669,
      "##from": 4670,
      "links": 4671,
      "partial": 4672,
      "##ias": 4673,
      "##45": 4674,
      "req": 4675,
      "cum": 4676,
      "liter": 4677,
      "my_list": 4678,
      "list2": 4679,
      "##_obj": 4680,
      "##fl": 4681,
      "71": 4682,
      "\");": 4683,
      "could": 4684,
      "btn": 4685,
      "##_per": 4686,
      "127": 4687,
      "##_k": 4688,
      "100000": 4689,
      "##be": 4690,
      "##------": 4691,
      "##ptime": 4692,
      "85": 4693,
      "##atever": 4694,
      "sheet": 4695,
      "readline": 4696,
      "itemgetter": 4697,
      "reduce": 4698,
      "mis": 4699,
      "delta": 4700,
      "89": 4701,
      "rs": 4702,
      "traceback": 4703,
      "##_image": 4704,
      "##07": 4705,
      "bs4": 4706,
      "ordereddict": 4707,
      "##_sc": 4708,
      "compare": 4709,
      "##()": 4710,
      "##_comp": 4711,
      "proxy": 4712,
      "]['": 4713,
      "already": 4714,
      "78": 4715,
      "ff": 4716,
      "##item__": 4717,
      "##_dat": 4718,
      "also": 4719,
      "subject": 4720,
      "quot": 4721,
      "esc": 4722,
      "ct": 4723,
      "walk": 4724,
      "##uch": 4725,
      "y2": 4726,
      "##:-": 4727,
      "##aw": 4728,
      "##alog": 4729,
      "##comp": 4730,
      "hor": 4731,
      "loads": 4732,
      "press": 4733,
      "($": 4734,
      "structure": 4735,
      "##ility": 4736,
      "parts": 4737,
      "##itude": 4738,
      "##_output": 4739,
      "bec": 4740,
      "##ause": 4741,
      "##itch": 4742,
      "([\"": 4743,
      "interpol": 4744,
      "md": 4745,
      "buf": 4746,
      "##opt": 4747,
      "##uid": 4748,
      "fix": 4749,
      "queryset": 4750,
      "69": 4751,
      "ll": 4752,
      "##6666": 4753,
      "##estring": 4754,
      "##ric": 4755,
      "anim": 4756,
      "##_point": 4757,
      "linux": 4758,
      "tri": 4759,
      "##_files": 4760,
      "funct": 4761,
      "##reader": 4762,
      "\"}": 4763,
      "##actor": 4764,
      "l1": 4765,
      "##':": 4766,
      "ls": 4767,
      "##ener": 4768,
      "whatever": 4769,
      "letters": 4770,
      "##pp": 4771,
      "tok": 4772,
      "iterate": 4773,
      "fd": 4774,
      "##').": 4775,
      "]=": 4776,
      "async": 4777,
      "]):": 4778,
      "##gr": 4779,
      "150": 4780,
      "our": 4781,
      "##\\.": 4782,
      "prov": 4783,
      "commit": 4784,
      "doesn": 4785,
      "('-": 4786,
      "take": 4787,
      "##_color": 4788,
      "##_button": 4789,
      "phot": 4790,
      "##oom": 4791,
      "sal": 4792,
      "relation": 4793,
      "##_column": 4794,
      "##03": 4795,
      "##ailable": 4796,
      "##config": 4797,
      "unittest": 4798,
      "##ike": 4799,
      "##module": 4800,
      "##_argument": 4801,
      "package": 4802,
      "##_width": 4803,
      "##_df": 4804,
      "*(": 4805,
      "read_csv": 4806,
      "bob": 4807,
      "88": 4808,
      "aaa": 4809,
      "##ats": 4810,
      ",)": 4811,
      "parsing": 4812,
      "entries": 4813,
      "cc": 4814,
      "##check": 4815,
      "recent": 4816,
      "##ope": 4817,
      "dog": 4818,
      "##_const": 4819,
      "/*": 4820,
      "construct": 4821,
      "imshow": 4822,
      "localhost": 4823,
      "css": 4824,
      "##ties": 4825,
      "support": 4826,
      "2d": 4827,
      "62": 4828,
      "unt": 4829,
      "views": 4830,
      "train": 4831,
      "events": 4832,
      "68": 4833,
      "##00000": 4834,
      "##po": 4835,
      "border": 4836,
      "l2": 4837,
      "company": 4838,
      "datas": 4839,
      "matching": 4840,
      "(\"%": 4841,
      "kw": 4842,
      "filen": 4843,
      "period": 4844,
      "##_or": 4845,
      "implement": 4846,
      "strptime": 4847,
      "vol": 4848,
      "##*-": 4849,
      "##ascript": 4850,
      "clock": 4851,
      "bad": 4852,
      "##a2": 4853,
      "##bit": 4854,
      "efficient": 4855,
      "(**": 4856,
      "##46": 4857,
      "##_as": 4858,
      "##ane": 4859,
      "legend": 4860,
      "##wo": 4861,
      "##ero": 4862,
      "']['": 4863,
      "list_of": 4864,
      "find_all": 4865,
      "comput": 4866,
      "##99999999": 4867,
      "999": 4868,
      "##lete": 4869,
      "##version": 4870,
      "##ior": 4871,
      "##char": 4872,
      "##irtual": 4873,
      "bg": 4874,
      "##_3": 4875,
      "##_group": 4876,
      "sv": 4877,
      "track": 4878,
      "classes": 4879,
      "##uture": 4880,
      "set_y": 4881,
      "about": 4882,
      "73": 4883,
      "compar": 4884,
      "##ialog": 4885,
      "php": 4886,
      "ignore": 4887,
      "perform": 4888,
      "##uage": 4889,
      "add_sub": 4890,
      "##cs": 4891,
      "equal": 4892,
      "##sel": 4893,
      "##53": 4894,
      ":',": 4895,
      "##number": 4896,
      "\"$": 4897,
      "/%": 4898,
      "byte": 4899,
      "##_event": 4900,
      "t2": 4901,
      "pyobject": 4902,
      "today": 4903,
      "excl": 4904,
      "##48": 4905,
      "3d": 4906,
      "];": 4907,
      "##_tag": 4908,
      "##ots": 4909,
      "##ross": 4910,
      "##51": 4911,
      "##yy": 4912,
      "-->": 4913,
      "##group": 4914,
      "##ense": 4915,
      "(\"/": 4916,
      "dx": 4917,
      "##91": 4918,
      "##ana": 4919,
      "console": 4920,
      "statement": 4921,
      "##entry": 4922,
      "push": 4923,
      "(('": 4924,
      "reset_index": 4925,
      "device": 4926,
      "pairs": 4927,
      "##ons": 4928,
      "\"/>": 4929,
      "'})": 4930,
      "b1": 4931,
      "(...)": 4932,
      "##:,": 4933,
      "literal": 4934,
      "find_element": 4935,
      "modules": 4936,
      "##_keys": 4937,
      "cb": 4938,
      "unpack": 4939,
      "tf": 4940,
      "contrib": 4941,
      "large": 4942,
      "v1": 4943,
      "##_max": 4944,
      "stick": 4945,
      "##_min": 4946,
      "##zone": 4947,
      "card": 4948,
      "##ination": 4949,
      "ax2": 4950,
      "starting": 4951,
      "dire": 4952,
      "##property": 4953,
      "##ival": 4954,
      "##ases": 4955,
      "##files": 4956,
      "(',')": 4957,
      "scroll": 4958,
      "bb": 4959,
      "mail": 4960,
      "##_response": 4961,
      "*/": 4962,
      "'[": 4963,
      "##conn": 4964,
      ":\"": 4965,
      "##93": 4966,
      "##_matrix": 4967,
      "curr": 4968,
      "functools": 4969,
      "##lean": 4970,
      "pyqt4": 4971,
      "lookup": 4972,
      ":'": 4973,
      "##iable": 4974,
      "stand": 4975,
      "testing": 4976,
      "##────": 4977,
      "##****************": 4978,
      "ss": 4979,
      "##esc": 4980,
      "prints": 4981,
      "optional": 4982,
      "##ier": 4983,
      "pay": 4984,
      "'*": 4985,
      "##andle": 4986,
      "##ffff": 4987,
      "##ado": 4988,
      "scatter": 4989,
      "ids": 4990,
      "##import": 4991,
      "until": 4992,
      "##_module": 4993,
      "##wise": 4994,
      "feed": 4995,
      "%(": 4996,
      "mpl": 4997,
      "thresh": 4998,
      "##xxxx": 4999,
      "'{": 5000,
      "active": 5001,
      "term": 5002,
      "##ease": 5003,
      "##ftime": 5004,
      "##state": 5005,
      "fire": 5006,
      "xa": 5007,
      "##wh": 5008,
      "addwidget": 5009,
      "'][": 5010,
      "expected": 5011,
      "generator": 5012,
      ":-": 5013,
      "digits": 5014,
      "##@@@@@@@@": 5015,
      "circle": 5016,
      "##air": 5017,
      "##emon": 5018,
      "##]+": 5019,
      "float64": 5020,
      "choices": 5021,
      "63": 5022,
      "depend": 5023,
      "0000": 5024,
      "rstrip": 5025,
      "invalid": 5026,
      "certain": 5027,
      "strftime": 5028,
      "##values": 5029,
      "gp": 5030,
      "##ypes": 5031,
      "('<": 5032,
      "##ocket": 5033,
      "##script": 5034,
      "dictionaries": 5035,
      "192": 5036,
      "##ck": 5037,
      "##ls": 5038,
      "##eff": 5039,
      "##pi": 5040,
      "util": 5041,
      "nltk": 5042,
      "92": 5043,
      "##_sel": 5044,
      "bel": 5045,
      "##len": 5046,
      "##ffset": 5047,
      "multipl": 5048,
      "##_0": 5049,
      "##iled": 5050,
      "81": 5051,
      "following": 5052,
      "interse": 5053,
      ".\"\"\"": 5054,
      "clust": 5055,
      "##','": 5056,
      "61": 5057,
      "##attribute": 5058,
      "##ship": 5059,
      "area": 5060,
      "iss": 5061,
      "javascript": 5062,
      "syn": 5063,
      "82": 5064,
      "add_subplot": 5065,
      "##2d": 5066,
      "defined": 5067,
      "##vert": 5068,
      "lis": 5069,
      "##_lines": 5070,
      "##menu": 5071,
      "cons": 5072,
      "##amples": 5073,
      "webs": 5074,
      "feature": 5075,
      "##^^": 5076,
      "-*-": 5077,
      "120": 5078,
      "avg": 5079,
      "##actory": 5080,
      "ir": 5081,
      "exe": 5082,
      "{}'.": 5083,
      "izip": 5084,
      "sa": 5085,
      "##_node": 5086,
      "mapping": 5087,
      "##lice": 5088,
      "##_app": 5089,
      "retri": 5090,
      "flags": 5091,
      "##patch": 5092,
      "##-----": 5093,
      "##_def": 5094,
      "finding": 5095,
      "##jk": 5096,
      "mid": 5097,
      "##ification": 5098,
      "iterator": 5099,
      "difference": 5100,
      "##_filename": 5101,
      "depth": 5102,
      "##_get": 5103,
      "]}": 5104,
      "outer": 5105,
      "ones": 5106,
      "##izont": 5107,
      "adj": 5108,
      "calling": 5109,
      "under": 5110,
      "vs": 5111,
      "xc": 5112,
      "##]*": 5113,
      "});": 5114,
      "##enum": 5115,
      "add_argument": 5116,
      "##_and": 5117,
      "};": 5118,
      "##child": 5119,
      "mydict": 5120,
      "special": 5121,
      "##eline": 5122,
      "##_opt": 5123,
      "##br": 5124,
      "##ctrl": 5125,
      "[:]": 5126,
      "##_sum": 5127,
      ",))": 5128,
      "##----------------------------------------------------------------": 5129,
      "##pect": 5130,
      "##arse": 5131,
      "indent": 5132,
      "isn": 5133,
      "excel": 5134,
      "media": 5135,
      "angle": 5136,
      "__set": 5137,
      "edge": 5138,
      "##gt": 5139,
      "##42": 5140,
      "fru": 5141,
      "threads": 5142,
      "virtual": 5143,
      "./": 5144,
      "##ral": 5145,
      "sud": 5146,
      "}\".": 5147,
      "myfile": 5148,
      "!\"": 5149,
      "##atures": 5150,
      "##abl": 5151,
      "who": 5152,
      "bins": 5153,
      "\"'": 5154,
      "export": 5155,
      ":/": 5156,
      "neg": 5157,
      "')[": 5158,
      "related": 5159,
      "##ces": 5160,
      "##_end": 5161,
      "##base": 5162,
      "sticky": 5163,
      "##000000": 5164,
      ")\"": 5165,
      "##ward": 5166,
      "decl": 5167,
      "nn": 5168,
      "##etype": 5169,
      "2f": 5170,
      "em": 5171,
      "eas": 5172,
      "vals": 5173,
      "600": 5174,
      "##ivy": 5175,
      "##manager": 5176,
      "expl": 5177,
      "mag": 5178,
      "container": 5179,
      "coordinates": 5180,
      "even": 5181,
      "##[\\": 5182,
      "##ometry": 5183,
      "ban": 5184,
      "##_page": 5185,
      "##_window": 5186,
      "qapplication": 5187,
      "##ulate": 5188,
      "myapp": 5189,
      "available": 5190,
      "dr": 5191,
      "1000000": 5192,
      "##atten": 5193,
      "writing": 5194,
      "blank": 5195,
      "built": 5196,
      "contour": 5197,
      "79": 5198,
      "uint": 5199,
      "pointer": 5200,
      "cred": 5201,
      "col1": 5202,
      "let": 5203,
      "progress": 5204,
      "manager": 5205,
      "=%": 5206,
      "fri": 5207,
      "##sizer": 5208,
      "selection": 5209,
      "dst": 5210,
      "##69": 5211,
      "kivy": 5212,
      "##tes": 5213,
      "warning": 5214,
      "##49": 5215,
      "##09": 5216,
      "these": 5217,
      "autom": 5218,
      "setattr": 5219,
      "##qual": 5220,
      "wik": 5221,
      ")(": 5222,
      "pil": 5223,
      "randn": 5224,
      "##75": 5225,
      "##result": 5226,
      "##adata": 5227,
      "dirname": 5228,
      "##eve": 5229,
      "scores": 5230,
      ")}": 5231,
      "##loy": 5232,
      "##_dec": 5233,
      "##_long": 5234,
      "four": 5235,
      "theta": 5236,
      "added": 5237,
      "##')[": 5238,
      "]/": 5239,
      "##ound": 5240,
      "##link": 5241,
      "dc": 5242,
      "they": 5243,
      "##press": 5244,
      "##ulation": 5245,
      "##client": 5246,
      "\"-": 5247,
      "##_fast": 5248,
      "##_words": 5249,
      "##_process": 5250,
      "##dat": 5251,
      "##pc": 5252,
      "##_match": 5253,
      "##72": 5254,
      "fail": 5255,
      "clicked": 5256,
      "##cv": 5257,
      "priv": 5258,
      "2009": 5259,
      "article": 5260,
      "##lock": 5261,
      "##kn": 5262,
      "##lose": 5263,
      "128": 5264,
      "ga": 5265,
      "torn": 5266,
      "##tuple": 5267,
      "'#": 5268,
      "b2": 5269,
      "##05": 5270,
      "##imes": 5271,
      "occur": 5272,
      "ve": 5273,
      "##ential": 5274,
      "endfor": 5275,
      "messages": 5276,
      "ny": 5277,
      "dum": 5278,
      "##_link": 5279,
      "factor": 5280,
      "##jax": 5281,
      "typeerror": 5282,
      "mm": 5283,
      "ssh": 5284,
      "file1": 5285,
      "maximum": 5286,
      "equival": 5287,
      "93": 5288,
      "framework": 5289,
      "##gest": 5290,
      "_s": 5291,
      "##irst": 5292,
      "load_const": 5293,
      "tornado": 5294,
      "add_": 5295,
      "wr": 5296,
      "annot": 5297,
      "2007": 5298,
      "summ": 5299,
      "##_bu": 5300,
      ".\")": 5301,
      "##68": 5302,
      "##roy": 5303,
      "xyz": 5304,
      "##pass": 5305,
      "scal": 5306,
      "square": 5307,
      "too": 5308,
      "##ather": 5309,
      "combo": 5310,
      "contact": 5311,
      "##ivot": 5312,
      "delet": 5313,
      "percent": 5314,
      "phone": 5315,
      "##win": 5316,
      "()):": 5317,
      "##afe": 5318,
      "##_thread": 5319,
      "##[\"": 5320,
      "sublist": 5321,
      "icon": 5322,
      "seek": 5323,
      "sparse": 5324,
      "##_request": 5325,
      "because": 5326,
      "pat": 5327,
      "##_idx": 5328,
      "cel": 5329,
      "rename": 5330,
      "##_valid": 5331,
      "##idden": 5332,
      "been": 5333,
      "language": 5334,
      "v2": 5335,
      "##itive": 5336,
      "usage": 5337,
      "radius": 5338,
      "prec": 5339,
      "coll": 5340,
      "direction": 5341,
      "##_i": 5342,
      "##ba": 5343,
      "hours": 5344,
      "gra": 5345,
      ":\\\\": 5346,
      "##_al": 5347,
      "protocol": 5348,
      "##ktop": 5349,
      "flatten": 5350,
      "vertical": 5351,
      "pylab": 5352,
      ">',": 5353,
      "gray": 5354,
      "##class__": 5355,
      "##$',": 5356,
      "java": 5357,
      "##1d": 5358,
      "\";": 5359,
      "']:": 5360,
      "##ensions": 5361,
      "za": 5362,
      "col2": 5363,
      "user_id": 5364,
      "##start": 5365,
      "seg": 5366,
      "##_word": 5367,
      "=[]": 5368,
      "configure": 5369,
      "##_template": 5370,
      ".*": 5371,
      "µs": 5372,
      "region": 5373,
      "video": 5374,
      "91": 5375,
      "2001": 5376,
      "setdefault": 5377,
      "optim": 5378,
      "bus": 5379,
      "##43": 5380,
      "utc": 5381,
      "\"+": 5382,
      ">'": 5383,
      "ask": 5384,
      "base64": 5385,
      "##gram": 5386,
      "gui": 5387,
      "dialog": 5388,
      "---": 5389,
      "##63": 5390,
      "pyc": 5391,
      "(\".": 5392,
      "##ends": 5393,
      "##met": 5394,
      "##message": 5395,
      "##ses": 5396,
      "##_one": 5397,
      "disable": 5398,
      "##_conn": 5399,
      "##efile": 5400,
      "))]": 5401,
      "##ea": 5402,
      "##ernel": 5403,
      "168": 5404,
      "qp": 5405,
      "##sign": 5406,
      "modify": 5407,
      ")'": 5408,
      "##store": 5409,
      "twist": 5410,
      "##ily": 5411,
      "listdir": 5412,
      "middle": 5413,
      "{}\".": 5414,
      "##chema": 5415,
      "##78": 5416,
      "__class__": 5417,
      "##_inter": 5418,
      "xf": 5419,
      "##'):": 5420,
      "##response": 5421,
      "shared": 5422,
      "equivalent": 5423,
      "##'))": 5424,
      "commun": 5425,
      "dynamic": 5426,
      "##_at": 5427,
      "##ayer": 5428,
      "neigh": 5429,
      "printing": 5430,
      "##active": 5431,
      "actual": 5432,
      "visit": 5433,
      "83": 5434,
      "dy": 5435,
      "##_height": 5436,
      "horizont": 5437,
      "##panel": 5438,
      "##overflow": 5439,
      "##column": 5440,
      "tt": 5441,
      "1024": 5442,
      "remote": 5443,
      "boolean": 5444,
      "permut": 5445,
      "cost": 5446,
      "##anges": 5447,
      "changed": 5448,
      "turn": 5449,
      "know": 5450,
      "##function": 5451,
      "##stream": 5452,
      "initialize": 5453,
      "third": 5454,
      "##_state": 5455,
      "sd": 5456,
      "##ved": 5457,
      "##ason": 5458,
      "quote": 5459,
      "xls": 5460,
      "pm": 5461,
      "xd": 5462,
      "##ached": 5463,
      "##keys": 5464,
      "deter": 5465,
      "pages": 5466,
      "##dig": 5467,
      "[])": 5468,
      "seed": 5469,
      "tz": 5470,
      "stock": 5471,
      "##aml": 5472,
      "dct": 5473,
      "free": 5474,
      "##rel": 5475,
      "nums": 5476,
      "##ym": 5477,
      "##unch": 5478,
      "collection": 5479,
      "\\\"": 5480,
      "##ene": 5481,
      "pivot": 5482,
      "relationship": 5483,
      "##ze": 5484,
      "being": 5485,
      "##click": 5486,
      "##iate": 5487,
      "##rag": 5488,
      "cam": 5489,
      "eg": 5490,
      "ru": 5491,
      "##right": 5492,
      "##anged": 5493,
      "ec": 5494,
      "##bs": 5495,
      "('//": 5496,
      "resource": 5497,
      "aud": 5498,
      "##serial": 5499,
      "!\")": 5500,
      "file_name": 5501,
      "]).": 5502,
      "stackoverflow": 5503,
      "##================================": 5504,
      "##_model": 5505,
      "above": 5506,
      "$(": 5507,
      "234": 5508,
      "##_del": 5509,
      "##ants": 5510,
      "processing": 5511,
      "standard": 5512,
      "##_pass": 5513,
      "concaten": 5514,
      "##001": 5515,
      "##labels": 5516,
      "photo": 5517,
      "##icates": 5518,
      "([(": 5519,
      "spider": 5520,
      "mic": 5521,
      "##0000000000000000": 5522,
      "fc": 5523,
      "mk": 5524,
      "bro": 5525,
      "##dialog": 5526,
      "minutes": 5527,
      "\"><": 5528,
      "__new": 5529,
      "prop": 5530,
      "##logg": 5531,
      "250": 5532,
      "##encode": 5533,
      "proble": 5534,
      "256": 5535,
      "edges": 5536,
      "tokens": 5537,
      "basic": 5538,
      "via": 5539,
      "##_something": 5540,
      "twisted": 5541,
      "]-": 5542,
      "__new__": 5543,
      "dem": 5544,
      "##wrap": 5545,
      "##bose": 5546,
      "partition": 5547,
      "##md": 5548,
      "quant": 5549,
      "frequ": 5550,
      "h1": 5551,
      "##79": 5552,
      "digit": 5553,
      "capture": 5554,
      "={": 5555,
      "##_widget": 5556,
      "##position": 5557,
      "combine": 5558,
      "##jor": 5559,
      "newline": 5560,
      "dummy": 5561,
      "##ouse": 5562,
      "##ually": 5563,
      "threshold": 5564,
      "cluster": 5565,
      "qwidget": 5566,
      "nor": 5567,
      "foobar": 5568,
      "complex": 5569,
      "craw": 5570,
      "passed": 5571,
      "##filename": 5572,
      "destroy": 5573,
      "<-": 5574,
      "overrid": 5575,
      "##08": 5576,
      "once": 5577,
      "##img": 5578,
      "customer": 5579,
      ",(": 5580,
      "ball": 5581,
      "finished": 5582,
      "fh": 5583,
      "##_ind": 5584,
      "board": 5585,
      "bash": 5586,
      "missing": 5587,
      "file2": 5588,
      "grouped": 5589,
      "collect": 5590,
      "escape": 5591,
      "gets": 5592,
      "properties": 5593,
      "uid": 5594,
      "##repr": 5595,
      "rev": 5596,
      "pres": 5597,
      "fromstring": 5598,
      "xb": 5599,
      "coords": 5600,
      "##ilar": 5601,
      "180": 5602,
      "member": 5603,
      "##block": 5604,
      "##ython": 5605,
      "lon": 5606,
      "102": 5607,
      "containing": 5608,
      "##_left": 5609,
      "##reh": 5610,
      "##oded": 5611,
      "##ides": 5612,
      "templ": 5613,
      "##)',": 5614,
      "##uck": 5615,
      "star": 5616,
      "set_index": 5617,
      "##cut": 5618,
      "evalu": 5619,
      "na": 5620,
      "##ensor": 5621,
      "##attr__": 5622,
      "##conds": 5623,
      "tail": 5624,
      "##'),": 5625,
      "##________": 5626,
      "##(.*": 5627,
      "eng": 5628,
      "tweet": 5629,
      "##_ext": 5630,
      "##_char": 5631,
      "records": 5632,
      "##respon": 5633,
      "verbose": 5634,
      "sched": 5635,
      "manage": 5636,
      "##_check": 5637,
      "[...": 5638,
      "git": 5639,
      "##fc": 5640,
      "endswith": 5641,
      "##zero": 5642,
      "##rain": 5643,
      "##_no": 5644,
      "recv": 5645,
      "converting": 5646,
      "##_content": 5647,
      "##plib": 5648,
      "subt": 5649,
      "##_handler": 5650,
      "##_filter": 5651,
      "##ful": 5652,
      "urlparse": 5653,
      "iloc": 5654,
      "men": 5655,
      "flush": 5656,
      "}}</": 5657,
      "existing": 5658,
      "fs": 5659,
      "find_element_by": 5660,
      "##_len": 5661,
      "celery": 5662,
      "(\\": 5663,
      "substring": 5664,
      "##ception": 5665,
      "processes": 5666,
      "(<": 5667,
      "der": 5668,
      "=-": 5669,
      "##_ac": 5670,
      "));": 5671,
      "recursive": 5672,
      "sqlite3": 5673,
      "tre": 5674,
      "##gor": 5675,
      "##onth": 5676,
      "##fox": 5677,
      "dataset": 5678,
      "(%": 5679,
      "sure": 5680,
      "orange": 5681,
      "test2": 5682,
      "switch": 5683,
      "failed": 5684,
      "\"{": 5685,
      "increment": 5686,
      "##41": 5687,
      "}\\": 5688,
      "##arn": 5689,
      "##isplay": 5690,
      "choo": 5691,
      "flat": 5692,
      "includ": 5693,
      "notebook": 5694,
      "cf": 5695,
      "##html": 5696,
      "##ibling": 5697,
      "##_title": 5698,
      "marker": 5699,
      "cdef": 5700,
      "rule": 5701,
      "##stract": 5702,
      "110": 5703,
      "##avel": 5704,
      "##match": 5705,
      "##part": 5706,
      "=\"/": 5707,
      "metadata": 5708,
      "arch": 5709,
      "##ube": 5710,
      "##_reg": 5711,
      "&&": 5712,
      "revers": 5713,
      "return_value": 5714,
      "finally": 5715,
      "##filter": 5716,
      "');": 5717,
      "compon": 5718,
      "##ople": 5719,
      "since": 5720,
      "micro": 5721,
      "##omp": 5722,
      "returning": 5723,
      ",:": 5724,
      "tables": 5725,
      "artist": 5726,
      "':[": 5727,
      "set_x": 5728,
      "translate": 5729,
      "jan": 5730,
      "kernel": 5731,
      "##sheet": 5732,
      "##56789": 5733,
      "fac": 5734,
      "h2": 5735,
      "require": 5736,
      "compute": 5737,
      "##ellow": 5738,
      "##([": 5739,
      "sender": 5740,
      "operation": 5741,
      "##agg": 5742,
      "deg": 5743,
      "##_datetime": 5744,
      "exec_": 5745,
      "ajax": 5746,
      "##dec": 5747,
      "sorting": 5748,
      "kind": 5749,
      "vix": 5750,
      "pur": 5751,
      "##node": 5752,
      "##icon": 5753,
      "]{": 5754,
      "}]": 5755,
      "compreh": 5756,
      "encrypt": 5757,
      ")**": 5758,
      "cand": 5759,
      "pc": 5760,
      "##http": 5761,
      "works": 5762,
      "employ": 5763,
      "addition": 5764,
      "##_position": 5765,
      "##mat": 5766,
      "##agraph": 5767,
      "bases": 5768,
      "pp": 5769,
      "tcp": 5770,
      "##_me": 5771,
      "##_do": 5772,
      "generic": 5773,
      "tm": 5774,
      "##_items": 5775,
      "chars": 5776,
      "firefox": 5777,
      "tur": 5778,
      "##_queue": 5779,
      "##7f": 5780,
      "##ending": 5781,
      "desktop": 5782,
      "nc": 5783,
      "parsed": 5784,
      "+'": 5785,
      "better": 5786,
      "est": 5787,
      "mut": 5788,
      "##0101": 5789,
      "enable": 5790,
      "##_fl": 5791,
      "##61": 5792,
      "##json": 5793,
      "their": 5794,
      "__call": 5795,
      "classmethod": 5796,
      "shuff": 5797,
      "blob": 5798,
      "##engine": 5799,
      "##efield": 5800,
      "##_header": 5801,
      "face": 5802,
      "pt": 5803,
      "'$": 5804,
      "##mn": 5805,
      "=',": 5806,
      "colorbar": 5807,
      "elementtree": 5808,
      "_get": 5809,
      "##bc": 5810,
      "##_com": 5811,
      "pret": 5812,
      "extension": 5813,
      "hasattr": 5814,
      "grad": 5815,
      "##ocus": 5816,
      "##imer": 5817,
      "serv": 5818,
      "##_work": 5819,
      "food": 5820,
      "##_trans": 5821,
      "##_default": 5822,
      "##_rec": 5823,
      "asyncio": 5824,
      "kill": 5825,
      "##writer": 5826,
      "private": 5827,
      "den": 5828,
      "##)\\": 5829,
      "cut": 5830,
      "##201": 5831,
      "tb": 5832,
      "##pose": 5833,
      "authent": 5834,
      "hy": 5835,
      "##orted": 5836,
      "attach": 5837,
      "bbb": 5838,
      "##ticks": 5839,
      "islice": 5840,
      "colour": 5841,
      "rectangle": 5842,
      "fmt": 5843,
      "##ission": 5844,
      "pag": 5845,
      "commands": 5846,
      "primary_key": 5847,
      "##esth": 5848,
      "##itor": 5849,
      "filepath": 5850,
      "interface": 5851,
      "sat": 5852,
      "tup": 5853,
      "globals": 5854,
      "represent": 5855,
      "calls": 5856,
      "##cre": 5857,
      "weights": 5858,
      "##_command": 5859,
      ")\\": 5860,
      "ds": 5861,
      "##uring": 5862,
      "filenames": 5863,
      "attributeerror": 5864,
      "tostring": 5865,
      "##\\\\\\": 5866,
      "##points": 5867,
      "##gorith": 5868,
      "pythonic": 5869,
      "##_ip": 5870,
      "##_message": 5871,
      "dom": 5872,
      "very": 5873,
      "alias": 5874,
      "passing": 5875,
      "##axes": 5876,
      "__call__": 5877,
      "oauth": 5878,
      "##enter": 5879,
      "##umb": 5880,
      "##otal": 5881,
      "dispatch": 5882,
      "som": 5883,
      "##itespace": 5884,
      "mix": 5885,
      "(\"<": 5886,
      "##_address": 5887,
      "factory": 5888,
      "batch": 5889,
      "mesh": 5890,
      "##variable": 5891,
      "padd": 5892,
      "##_cur": 5893,
      "']),": 5894,
      "specified": 5895,
      "cookie": 5896,
      "##eb": 5897,
      "intersection": 5898,
      "past": 5899,
      "errors": 5900,
      "pixel": 5901,
      "rate": 5902,
      "##iction": 5903,
      "dl": 5904,
      "##_root": 5905,
      "plat": 5906,
      "##parent": 5907,
      "buttons": 5908,
      "##search": 5909,
      "##allel": 5910,
      "##ively": 5911,
      "near": 5912,
      "##chor": 5913,
      "bits": 5914,
      "nt": 5915,
      "s3": 5916,
      "##jo": 5917,
      "still": 5918,
      "##_ids": 5919,
      "##bound": 5920,
      "bc": 5921,
      "##_part": 5922,
      "paths": 5923,
      "##ogram": 5924,
      "needed": 5925,
      "##erry": 5926,
      "##iles": 5927,
      "returned": 5928,
      "2008": 5929,
      "horizontal": 5930,
      "##endar": 5931,
      "secret": 5932,
      "##graph": 5933,
      "##ration": 5934,
      "##234": 5935,
      "##rec": 5936,
      "distrib": 5937,
      "changes": 5938,
      "##herit": 5939,
      "__repr": 5940,
      "800": 5941,
      "destination": 5942,
      "solution": 5943,
      "fruit": 5944,
      "mong": 5945,
      "scope": 5946,
      "##_counts": 5947,
      "##tag": 5948,
      "##words": 5949,
      "sudo": 5950,
      "##fer": 5951,
      "##>>": 5952,
      "test1": 5953,
      "csvfile": 5954,
      ">\"": 5955,
      "_id": 5956,
      "##raction": 5957,
      "devel": 5958,
      "cumsum": 5959,
      "lt": 5960,
      "##gon": 5961,
      "oct": 5962,
      "documents": 5963,
      "coding": 5964,
      "fixed": 5965,
      "tell": 5966,
      "##cols": 5967,
      "utf8": 5968,
      "csr": 5969,
      "mymodel": 5970,
      "])]": 5971,
      "inplace": 5972,
      "##asc": 5973,
      "mainwindow": 5974,
      "banana": 5975,
      "radio": 5976,
      "##known": 5977,
      "__repr__": 5978,
      "##lers": 5979,
      "##urse": 5980,
      "##_dist": 5981,
      "details": 5982,
      "##_fields": 5983,
      "/\"": 5984,
      "frames": 5985,
      "instances": 5986,
      "__getitem__": 5987,
      "##rate": 5988,
      "my_dict": 5989,
      "##str__": 5990,
      "endif": 5991,
      "similar": 5992,
      "dimension": 5993,
      "ii": 5994,
      "##_attr": 5995,
      "__str__": 5996,
      "u00": 5997,
      "##itter": 5998,
      "iso": 5999,
      "paragraph": 6000,
      "abcdef": 6001,
      "people": 6002,
      "automat": 6003,
      "runt": 6004,
      "']}": 6005,
      "iteration": 6006,
      "hidden": 6007,
      "##ed_data": 6008,
      "chart": 6009,
      "##ways": 6010,
      "spaces": 6011,
      "##_instance": 6012,
      "rc": 6013,
      "beh": 6014,
      "timezone": 6015,
      "integers": 6016,
      "##_sec": 6017,
      "below": 6018,
      "##-------": 6019,
      "##abet": 6020,
      "(\",": 6021,
      "gb": 6022,
      "##73": 6023,
      "modified": 6024,
      "##with": 6025,
      "##header": 6026,
      "\"].": 6027,
      "updated": 6028,
      ")?": 6029,
      "mach": 6030,
      "##mpt": 6031,
      "environment": 6032,
      "##icy": 6033,
      "##aclass": 6034,
      "changing": 6035,
      "fro": 6036,
      "##\\\"": 6037,
      "']).": 6038,
      "##come": 6039,
      "resize": 6040,
      "key1": 6041,
      "sun": 6042,
      "##_q": 6043,
      "power": 6044,
      "ttk": 6045,
      "##alled": 6046,
      "say": 6047,
      "##format": 6048,
      "/'": 6049,
      "unknown": 6050,
      "tasks": 6051,
      "##_status": 6052,
      "overl": 6053,
      "##meta": 6054,
      "##ilder": 6055,
      "dirs": 6056,
      "##ough": 6057,
      "##_context": 6058,
      "cnt": 6059,
      "ravel": 6060,
      "##roid": 6061,
      "cannot": 6062,
      "checking": 6063,
      "exclude": 6064,
      "vars": 6065,
      "rt": 6066,
      "##uss": 6067,
      "##_eval": 6068,
      "rep": 6069,
      "avoid": 6070,
      "pow": 6071,
      "##atio": 6072,
      "partic": 6073,
      "lic": 6074,
      "##write": 6075,
      "##off": 6076,
      "##71": 6077,
      "plug": 6078,
      "mime": 6079,
      "nav": 6080,
      "##a1": 6081,
      "##cg": 6082,
      "complet": 6083,
      "##_config": 6084,
      "duplicate": 6085,
      "##duct": 6086,
      "5000": 6087,
      "spl": 6088,
      "##essions": 6089,
      "algorith": 6090,
      "cn": 6091,
      "##mpy": 6092,
      "##ital": 6093,
      "##email": 6094,
      "orient": 6095,
      "intern": 6096,
      "started": 6097,
      "##_rows": 6098,
      "reversed": 6099,
      "##rase": 6100,
      "removing": 6101,
      "amp": 6102,
      "bise": 6103,
      "quick": 6104,
      "volume": 6105,
      "##iver": 6106,
      "##yles": 6107,
      "103": 6108,
      "cmds": 6109,
      "##context": 6110,
      "##rome": 6111,
      "##unct": 6112,
      "listen": 6113,
      "resol": 6114,
      "##request": 6115,
      "room": 6116,
      "pal": 6117,
      "anal": 6118,
      "extern": 6119,
      "([])": 6120,
      "synt": 6121,
      "entity": 6122,
      "##uv": 6123,
      "resp": 6124,
      "shutil": 6125,
      "##logger": 6126,
      "\"},": 6127,
      "'}]": 6128,
      "##esthandler": 6129,
      "##command": 6130,
      "eu": 6131,
      "##fe": 6132,
      "##.+": 6133,
      "...,": 6134,
      "##rd": 6135,
      "##_order": 6136,
      "magic": 6137,
      "1e": 6138,
      "yellow": 6139,
      "##learn": 6140,
      "##izes": 6141,
      "2005": 6142,
      "yaml": 6143,
      "indexes": 6144,
      "splitlines": 6145,
      "##sets": 6146,
      "webapp": 6147,
      "widgets": 6148,
      "##_format": 6149,
      "##_points": 6150,
      "gmail": 6151,
      "##((": 6152,
      "bisect": 6153,
      "105": 6154,
      "125": 6155,
      "\"></": 6156,
      "##_not": 6157,
      "##(?=": 6158,
      "##profile": 6159,
      "geometry": 6160,
      "comprehension": 6161,
      "remain": 6162,
      "altern": 6163,
      "agent": 6164,
      "##fd": 6165,
      "##olute": 6166,
      "##\"))": 6167,
      "es": 6168,
      "||": 6169,
      "own": 6170,
      "##_read": 6171,
      "wxpython": 6172,
      "transl": 6173,
      "levels": 6174,
      "##uction": 6175,
      "##f8": 6176,
      "addr": 6177,
      "minimum": 6178,
      ".)": 6179,
      "##ne": 6180,
      "linear": 6181,
      "probab": 6182,
      "did": 6183,
      "merged": 6184,
      "separate": 6185,
      "(':": 6186,
      "data1": 6187,
      "formatter": 6188,
      "bla": 6189,
      "payload": 6190,
      "easy": 6191,
      "inp": 6192,
      "##_port": 6193,
      "##_base": 6194,
      "##content": 6195,
      "histogram": 6196,
      "*)": 6197,
      "##kk": 6198,
      "always": 6199,
      "##ires": 6200,
      "padx": 6201,
      "m2": 6202,
      "##equal": 6203,
      "##lection": 6204,
      "syntax": 6205,
      "cherry": 6206,
      "__file": 6207,
      "##_cre": 6208,
      "complete": 6209,
      "={}": 6210,
      "##_score": 6211,
      "validate": 6212,
      "##_rel": 6213,
      "stored": 6214,
      "retrieve": 6215,
      "ln": 6216,
      "inherit": 6217,
      "##eform": 6218,
      "##123": 6219,
      "order_by": 6220,
      "##inal": 6221,
      "things": 6222,
      "key2": 6223,
      "[{": 6224,
      "##ten": 6225,
      "present": 6226,
      "release": 6227,
      "communicate": 6228,
      "##run": 6229,
      "##arm": 6230,
      "delay": 6231,
      "takes": 6232,
      "issue": 6233,
      "shuffle": 6234,
      "##ystem": 6235,
      "##inj": 6236,
      "')])": 6237,
      "arg1": 6238,
      "testcase": 6239,
      "cycle": 6240,
      "__file__": 6241,
      "<!": 6242,
      "##ied": 6243,
      "do_something": 6244,
      "ftp": 6245,
      "##ron": 6246,
      "ans": 6247,
      "clip": 6248,
      "choose": 6249,
      "uuid": 6250,
      "##ness": 6251,
      "##eto": 6252,
      "keyerror": 6253,
      "qs": 6254,
      "##ox": 6255,
      "##izing": 6256,
      "gpio": 6257,
      "##_press": 6258,
      "plotting": 6259,
      "parse_args": 6260,
      "neighb": 6261,
      "anchor": 6262,
      "parallel": 6263,
      "alist": 6264,
      "value2": 6265,
      "##tings": 6266,
      "ignor": 6267,
      "pys": 6268,
      "##(?<": 6269,
      "##oice": 6270,
      "gene": 6271,
      "workbook": 6272,
      "website": 6273,
      "declar": 6274,
      "concatenate": 6275,
      "##txt": 6276,
      "##\").": 6277,
      "##copy": 6278,
      "detect": 6279,
      "mc": 6280,
      "tolist": 6281,
      "definit": 6282,
      "strong": 6283,
      "ld": 6284,
      "##vis": 6285,
      "is_": 6286,
      ")>": 6287,
      "received": 6288,
      "sklearn": 6289,
      "prime": 6290,
      "##_tree": 6291,
      "value1": 6292,
      "var1": 6293,
      "alphabet": 6294,
      "egg": 6295,
      "ssl": 6296,
      "##irectory": 6297,
      ".'],": 6298,
      "%%": 6299,
      "getvalue": 6300,
      "##gsize": 6301,
      "imag": 6302,
      "twitter": 6303,
      "){": 6304,
      "##rup": 6305,
      "##req": 6306,
      "##ains": 6307,
      "duration": 6308,
      "##elf": 6309,
      "force": 6310,
      "specify": 6311,
      "##web": 6312,
      "mu": 6313,
      "reactor": 6314,
      "grade": 6315,
      "aggreg": 6316,
      "##oci": 6317,
      "whitespace": 6318,
      "frequency": 6319,
      "\"\",": 6320,
      "alt": 6321,
      "allowed": 6322,
      "runtime": 6323,
      "algorithm": 6324,
      "blit": 6325,
      "doct": 6326,
      ":],": 6327,
      "##sure": 6328,
      "##ven": 6329,
      "class_": 6330,
      "lead": 6331,
      "movie": 6332,
      "years": 6333,
      "respon": 6334,
      "keyboard": 6335,
      "uri": 6336,
      "sprite": 6337,
      "corp": 6338,
      "ctr": 6339,
      "data2": 6340,
      "scan": 6341,
      "hal": 6342,
      "##serializer": 6343,
      "'--": 6344,
      "i1": 6345,
      "ys": 6346,
      "##uth": 6347,
      "##ided": 6348,
      "__f": 6349,
      "=='": 6350,
      "locals": 6351,
      "\\\\\\\\": 6352,
      "xsl": 6353,
      "diag": 6354,
      "compress": 6355,
      "first_name": 6356,
      "##pha": 6357,
      ",),": 6358,
      "news": 6359,
      "rating": 6360,
      "##change": 6361,
      "inputs": 6362,
      "##ming": 6363,
      "##service": 6364,
      "##_offset": 6365,
      "fillna": 6366,
      "hold": 6367,
      "##ecol": 6368,
      "replacement": 6369,
      "daemon": 6370,
      "gc": 6371,
      "yy": 6372,
      "pg": 6373,
      "##anch": 6374,
      "gd": 6375,
      "##ids": 6376,
      "roll": 6377,
      "license": 6378,
      "cross": 6379,
      "sr": 6380,
      "##_ro": 6381,
      "##ecs": 6382,
      "##_mode": 6383,
      "zipfile": 6384,
      "##_pl": 6385,
      "##ding": 6386,
      "surface": 6387,
      "hum": 6388,
      "##fs": 6389,
      "##_open": 6390,
      "##'''": 6391,
      "permutations": 6392,
      "##dc": 6393,
      "##output": 6394,
      "xmlns": 6395,
      "##card": 6396,
      "##mine": 6397,
      "exc": 6398,
      "prompt": 6399,
      "##000e": 6400,
      "keywords": 6401,
      "give": 6402,
      "##mm": 6403,
      "##era": 6404,
      "0x10": 6405,
      "suff": 6406,
      "platform": 6407,
      "##ga": 6408,
      "##uation": 6409,
      "##{%": 6410,
      "defaults": 6411,
      "pady": 6412,
      "##only": 6413,
      "##arr": 6414,
      "pred": 6415,
      "##?\\": 6416,
      "##ones": 6417,
      "##inder": 6418,
      "##_script": 6419,
      "##_doc": 6420,
      "='\\": 6421,
      "role": 6422,
      "##_child": 6423,
      "##aint": 6424,
      "##open": 6425,
      "members": 6426,
      "cherrypy": 6427,
      "computer": 6428,
      "odd": 6429,
      "create_": 6430,
      "##bot": 6431,
      "(\"\"\"": 6432,
      "##_year": 6433,
      "cpu": 6434,
      "jul": 6435,
      "u0": 6436,
      "y0": 6437,
      "figsize": 6438,
      "##amily": 6439,
      "heap": 6440,
      "##_change": 6441,
      ":=": 6442,
      "cgi": 6443,
      "##_level": 6444,
      "##exception": 6445,
      "less": 6446,
      "atom": 6447,
      "##doc__": 6448,
      "c3": 6449,
      "xaxis": 6450,
      "##]]": 6451,
      "creates": 6452,
      "buck": 6453,
      "##_source": 6454,
      "comments": 6455,
      "subclass": 6456,
      "##_params": 6457,
      "\"[": 6458,
      "doing": 6459,
      "##ators": 6460,
      "##5714": 6461,
      "normalize": 6462,
      "making": 6463,
      "jinj": 6464,
      "templates": 6465,
      "002": 6466,
      "hide": 6467,
      "trying": 6468,
      "grp": 6469,
      "determine": 6470,
      "]})": 6471,
      "bbox": 6472,
      "##can": 6473,
      "##vv": 6474,
      "wrong": 6475,
      "candid": 6476,
      "boxsizer": 6477,
      "+\"": 6478,
      "c_": 6479,
      "soft": 6480,
      "opener": 6481,
      "imap": 6482,
      "eggs": 6483,
      "wind": 6484,
      "__doc__": 6485,
      "##_fe": 6486,
      "questions": 6487,
      "dynamically": 6488,
      "nat": 6489,
      "\"]/": 6490,
      "##buffer": 6491,
      "##err": 6492,
      "##rev": 6493,
      "selector": 6494,
      "##area": 6495,
      "'>,": 6496,
      "wiki": 6497,
      "*=": 6498,
      ".....": 6499,
      "starts": 6500,
      "##7777": 6501,
      "savef": 6502,
      "##cr": 6503,
      "filtered": 6504,
      "turtle": 6505,
      "##_two": 6506,
      "internet": 6507,
      "##utils": 6508,
      "gt": 6509,
      "watch": 6510,
      "##ho": 6511,
      "gn": 6512,
      "##_init": 6513,
      "##_loop": 6514,
      "##ether": 6515,
      "jun": 6516,
      "exact": 6517,
      "##ubar": 6518,
      "desired": 6519,
      "calendar": 6520,
      "##``": 6521,
      "##mark": 6522,
      "##stand": 6523,
      "forward": 6524,
      "##_det": 6525,
      "##boxlayout": 6526,
      "##alth": 6527,
      "##ives": 6528,
      "##_glob": 6529,
      "##addr": 6530,
      "ndarray": 6531,
      "##eries": 6532,
      "##used": 6533,
      "appro": 6534,
      "140": 6535,
      "positions": 6536,
      "(?:": 6537,
      "owner": 6538,
      "##tz": 6539,
      "hot": 6540,
      "##ushbutton": 6541,
      "blog": 6542,
      "##kit": 6543,
      "virtualenv": 6544,
      "...)": 6545,
      "abstract": 6546,
      "##encod": 6547,
      "##0001": 6548,
      "suffix": 6549,
      "##handle": 6550,
      "()}": 6551,
      "##quence": 6552,
      "()).": 6553,
      "namedtuple": 6554,
      "jump": 6555,
      "##ette": 6556,
      "apr": 6557,
      "extracting": 6558,
      "fib": 6559,
      "solve": 6560,
      "utils": 6561,
      "annotate": 6562,
      "consum": 6563,
      "cython": 6564,
      "##_callback": 6565,
      "literal_eval": 6566,
      "savefig": 6567,
      "##arg": 6568,
      "plain": 6569,
      "nothing": 6570,
      "convers": 6571,
      "##_urls": 6572,
      "polygon": 6573,
      "well": 6574,
      "##asure": 6575,
      "##edges": 6576,
      "##ison": 6577,
      "features": 6578,
      "wrapped": 6579,
      "dll": 6580,
      "##factory": 6581,
      "##_sp": 6582,
      "minute": 6583,
      ".')": 6584,
      "##lin": 6585,
      "##hs": 6586,
      "union": 6587,
      "checkbox": 6588,
      "categories": 6589,
      "##ither": 6590,
      "##rive": 6591,
      "mim": 6592,
      "##way": 6593,
      "##_is": 6594,
      "##_log": 6595,
      "appe": 6596,
      "comma": 6597,
      "negative": 6598,
      "[<": 6599,
      "wav": 6600,
      "104": 6601,
      "##_mult": 6602,
      "##_host": 6603,
      "scripts": 6604,
      "slow": 6605,
      "##ghi": 6606,
      "uint8": 6607,
      "develop": 6608,
      "##erence": 6609,
      "()])": 6610,
      "deep": 6611,
      "smith": 6612,
      "wraps": 6613,
      "nearest": 6614,
      "won": 6615,
      "##title": 6616,
      "##_query": 6617,
      "##light": 6618,
      "##js": 6619,
      "ang": 6620,
      "##_comm": 6621,
      "locale": 6622,
      "copyright": 6623,
      "encoded": 6624,
      "had": 6625,
      "##foo": 6626,
      "to_datetime": 6627,
      ">{{": 6628,
      "a3": 6629,
      "flo": 6630,
      "']],": 6631,
      "##_down": 6632,
      "storage": 6633,
      "wsgi": 6634,
      "##exit": 6635,
      "##_first": 6636,
      "##_bar": 6637,
      "++)": 6638,
      "gs": 6639,
      "##exp": 6640,
      "##_back": 6641,
      "patterns": 6642,
      "arg2": 6643,
      "chunks": 6644,
      "md5": 6645,
      "##edge": 6646,
      "('',": 6647,
      "##imestamp": 6648,
      "##_el": 6649,
      "##-+": 6650,
      "arrow": 6651,
      "##jkl": 6652,
      "##_ret": 6653,
      "pretty": 6654,
      "summary": 6655,
      "gh": 6656,
      "yout": 6657,
      "inline": 6658,
      "##style": 6659,
      "([('": 6660,
      "';": 6661,
      "##([^": 6662,
      "##_db": 6663,
      "##_diff": 6664,
      "##ny": 6665,
      "__t": 6666,
      "load_fast": 6667,
      "slug": 6668,
      "bal": 6669,
      "hap": 6670,
      "nr": 6671,
      "##apt": 6672,
      "##hash": 6673,
      "##iform": 6674,
      "interpolate": 6675,
      "##_longest": 6676,
      "'|": 6677,
      "##_print": 6678,
      "z0": 6679,
      "##iness": 6680,
      "##_next": 6681,
      "dict1": 6682,
      "///": 6683,
      "##font": 6684,
      "##_top": 6685,
      "refresh": 6686,
      "conditions": 6687,
      "f3": 6688,
      "##icklabels": 6689,
      "##address": 6690,
      "problem": 6691,
      "emit": 6692,
      "gif": 6693,
      "gender": 6694,
      "n1": 6695,
      "##nn": 6696,
      "##ips": 6697,
      "##------------------------": 6698,
      "positive": 6699,
      "##uture__": 6700,
      "__future__": 6701,
      "dicts": 6702,
      "##ources": 6703,
      "cells": 6704,
      "}'": 6705,
      "##aving": 6706,
      "least": 6707,
      "automatically": 6708,
      "##zen": 6709,
      "linewidth": 6710,
      "sympy": 6711,
      "pdb": 6712,
      "0b": 6713,
      "#----------------------------------------------------------------": 6714,
      "schema": 6715,
      "ndb": 6716,
      "tile": 6717,
      "##close": 6718,
      "##term": 6719,
      "means": 6720,
      "!'": 6721,
      "\\'": 6722,
      "rw": 6723,
      "##height": 6724,
      "ctx": 6725,
      "cip": 6726,
      "eq": 6727,
      "r2": 6728,
      "##length": 6729,
      "##uu": 6730,
      "##_python": 6731,
      "##_run": 6732,
      "handlers": 6733,
      "everything": 6734,
      "##_buffer": 6735,
      "demo": 6736,
      "gam": 6737,
      "light": 6738,
      "##move": 6739,
      "##frames": 6740,
      "remaining": 6741,
      ":,": 6742,
      "tit": 6743,
      "##serv": 6744,
      "\")]": 6745,
      "latest": 6746,
      "modelform": 6747,
      "otherwise": 6748,
      "quantity": 6749,
      "+',": 6750,
      "``": 6751,
      "r1": 6752,
      "rv": 6753,
      "clo": 6754,
      "##_letter": 6755,
      "##azy": 6756,
      "##ablename": 6757,
      "pie": 6758,
      ">:": 6759,
      "##999": 6760,
      "##_inst": 6761,
      "##(\"": 6762,
      "##mainwindow": 6763,
      "##*.": 6764,
      "subset": 6765,
      "argumentparser": 6766,
      "]+)": 6767,
      "constructor": 6768,
      "/',": 6769,
      "wall": 6770,
      "x86": 6771,
      "##reet": 6772,
      "##_block": 6773,
      "##project": 6774,
      "']))": 6775,
      "interpolation": 6776,
      "##mq": 6777,
      "animation": 6778,
      "english": 6779,
      "e1": 6780,
      "##eme": 6781,
      "('{": 6782,
      "get_text": 6783,
      "sigma": 6784,
      "emb": 6785,
      "##_ab": 6786,
      "##_entry": 6787,
      "nov": 6788,
      "##signed": 6789,
      "##apsed": 6790,
      "##trans": 6791,
      "employee": 6792,
      "pict": 6793,
      "##gen": 6794,
      "tom": 6795,
      "cancel": 6796,
      "##connection": 6797,
      "beta": 6798,
      "nrows": 6799,
      "##ging": 6800,
      "such": 6801,
      "##_click": 6802,
      "whole": 6803,
      "qpushbutton": 6804,
      "nam": 6805,
      "x01": 6806,
      "##ano": 6807,
      "later": 6808,
      "##member": 6809,
      "override": 6810,
      "animal": 6811,
      "constant": 6812,
      "##_parser": 6813,
      "\"})": 6814,
      "]',": 6815,
      "##dist": 6816,
      "formatting": 6817,
      "correspon": 6818,
      "##_price": 6819,
      "##mar": 6820,
      "##inct": 6821,
      "external": 6822,
      "()),": 6823,
      "##_right": 6824,
      "abcd": 6825,
      "closed": 6826,
      "##_password": 6827,
      "(.": 6828,
      ":\")": 6829,
      "##pix": 6830,
      "456": 6831,
      "topic": 6832,
      "audio": 6833,
      "hit": 6834,
      "conv": 6835,
      "##formatter": 6836,
      "##holder": 6837,
      "##ker": 6838,
      "##status": 6839,
      "prior": 6840,
      "##_mask": 6841,
      "sending": 6842,
      "rd": 6843,
      "xi": 6844,
      "chrome": 6845,
      "opencv": 6846,
      "2006": 6847,
      "pixels": 6848,
      "##head": 6849,
      "##}}": 6850,
      "##icated": 6851,
      "_c": 6852,
      "trig": 6853,
      "callable": 6854,
      "backend": 6855,
      "hostname": 6856,
      "assum": 6857,
      "capital": 6858,
      "vb": 6859,
      "numeric": 6860,
      "curl": 6861,
      "##_secret": 6862,
      "#####": 6863,
      "deque": 6864,
      "130": 6865,
      ">)": 6866,
      "##_4": 6867,
      "##inx": 6868,
      "##_task": 6869,
      "{},": 6870,
      "last_name": 6871,
      "##_stuff": 6872,
      "validation": 6873,
      "cookies": 6874,
      "xlsx": 6875,
      "##ictionary": 6876,
      "##alg": 6877,
      "##iddleware": 6878,
      "360": 6879,
      "##temp": 6880,
      "##_error": 6881,
      "##isible": 6882,
      "httpresponse": 6883,
      "americ": 6884,
      "history": 6885,
      "##ci": 6886,
      "##pm": 6887,
      "##land": 6888,
      "df3": 6889,
      "deal": 6890,
      "107": 6891,
      "##_xpath": 6892,
      "generated": 6893,
      "brown": 6894,
      "##ws": 6895,
      "##urity": 6896,
      "flip": 6897,
      "transaction": 6898,
      "facebook": 6899,
      "##_64": 6900,
      "outside": 6901,
      "##da": 6902,
      "##!!": 6903,
      "whether": 6904,
      "##spider": 6905,
      "blocks": 6906,
      "future": 6907,
      "##next": 6908,
      "##mer": 6909,
      "##_stream": 6910,
      "basename": 6911,
      "phrase": 6912,
      "machine": 6913,
      "vel": 6914,
      "##cast": 6915,
      "##uous": 6916,
      "id_": 6917,
      "transpose": 6918,
      "fg": 6919,
      "##activ": 6920,
      "docs": 6921,
      "terminal": 6922,
      "#################################": 6923,
      "##002": 6924,
      "prevent": 6925,
      "rules": 6926,
      "course": 6927,
      "py2": 6928,
      "sever": 6929,
      "connected": 6930,
      "cast": 6931,
      "{:": 6932,
      "##mode": 6933,
      "##||": 6934,
      "##login": 6935,
      "sound": 6936,
      "##_head": 6937,
      "##_labels": 6938,
      "##ident": 6939,
      "##\",\"": 6940,
      "m1": 6941,
      "##_qu": 6942,
      "##_norm": 6943,
      "=[\"": 6944,
      "networkx": 6945,
      "ub": 6946,
      "w3": 6947,
      "##_requ": 6948,
      "))))": 6949,
      "anything": 6950,
      "##digit": 6951,
      "##══": 6952,
      "##_tool": 6953,
      "122": 6954,
      "##_man": 6955,
      "swap": 6956,
      "##vector": 6957,
      "##atic": 6958,
      "##eno": 6959,
      "112": 6960,
      "##(?!": 6961,
      "__tablename": 6962,
      "##series": 6963,
      "states": 6964,
      "versions": 6965,
      "youtube": 6966,
      "__tablename__": 6967,
      "}{": 6968,
      "##izers": 6969,
      "##_stack": 6970,
      "##_bytes": 6971,
      "gcc": 6972,
      "mus": 6973,
      "x3": 6974,
      "##ique": 6975,
      "##xyz": 6976,
      "##pattern": 6977,
      "predict": 6978,
      "##_iterable": 6979,
      "##_results": 6980,
      "ben": 6981,
      "c_int": 6982,
      "##fr": 6983,
      "##iline": 6984,
      "##_tuple": 6985,
      "orm": 6986,
      "date_range": 6987,
      "u2": 6988,
      "filters": 6989,
      "bill": 6990,
      "##mix": 6991,
      "review": 6992,
      "##refix": 6993,
      "mp3": 6994,
      "##enerator": 6995,
      "grab": 6996,
      "##gl": 6997,
      "pyside": 6998,
      "jobs": 6999,
      "+\\": 7000,
      "asarray": 7001,
      "##_strings": 7002,
      "##................": 7003,
      "occurr": 7004,
      "${": 7005,
      "gzip": 7006,
      "##ithub": 7007,
      "usec": 7008,
      "margin": 7009,
      "d3": 7010,
      "either": 7011,
      "##chan": 7012,
      "duplicates": 7013,
      "multiply": 7014,
      "additional": 7015,
      "##ios": 7016,
      "##_server": 7017,
      "##|\\": 7018,
      "randrange": 7019,
      "'\\\\": 7020,
      "expect": 7021,
      "optimize": 7022,
      "##_version": 7023,
      "##scale": 7024,
      "products": 7025,
      "particular": 7026,
      "fft": 7027,
      "ham": 7028,
      "##fg": 7029,
      "listbox": 7030,
      "##_sign": 7031,
      "uniform": 7032,
      "iterating": 7033,
      "\"\".": 7034,
      "ccc": 7035,
      "=\"{{": 7036,
      "start_time": 7037,
      ">')": 7038,
      "mr": 7039,
      "##_z": 7040,
      "pym": 7041,
      "##changed": 7042,
      "share": 7043,
      "bucket": 7044,
      "az": 7045,
      "##ae": 7046,
      "##elines": 7047,
      "##ahoo": 7048,
      "n2": 7049,
      "ol": 7050,
      "safe": 7051,
      "flow": 7052,
      "cleaned_data": 7053,
      "##eful": 7054,
      "getelement": 7055,
      "108": 7056,
      "##apter": 7057,
      "publish": 7058,
      "padding": 7059,
      "##_month": 7060,
      "handling": 7061,
      "'{}": 7062,
      "github": 7063,
      "##rans": 7064,
      "##just": 7065,
      "grep": 7066,
      "embed": 7067,
      "aug": 7068,
      "jquery": 7069,
      "tc": 7070,
      "##_ma": 7071,
      "##arget": 7072,
      "joe": 7073,
      "interpr": 7074,
      "smtp": 7075,
      "##where": 7076,
      "##join": 7077,
      ",[": 7078,
      "3000": 7079,
      "od": 7080,
      "##_ph": 7081,
      "[::-": 7082,
      "---------": 7083,
      "bold": 7084,
      ".\\": 7085,
      "hard": 7086,
      "##acy": 7087,
      "115": 7088,
      "##ensity": 7089,
      "months": 7090,
      "behav": 7091,
      "##rupt": 7092,
      "uk": 7093,
      "##_tags": 7094,
      "##_menu": 7095,
      "##illa": 7096,
      "transport": 7097,
      "players": 7098,
      "associ": 7099,
      "abspath": 7100,
      "meshgrid": 7101,
      "hw": 7102,
      "##_an": 7103,
      "##ka": 7104,
      "coeff": 7105,
      "##ula": 7106,
      "loading": 7107,
      "saved": 7108,
      ")')": 7109,
      "ce": 7110,
      "##wer": 7111,
      "linalg": 7112,
      "fout": 7113,
      "##etext": 7114,
      "))[": 7115,
      "sph": 7116,
      "foot": 7117,
      "\\.": 7118,
      "ba": 7119,
      "vec": 7120,
      "tools": 7121,
      "##rees": 7122,
      "conse": 7123,
      "160": 7124,
      "##125": 7125,
      "saving": 7126,
      "##isk": 7127,
      "106": 7128,
      "lear": 7129,
      "}.": 7130,
      "##rad": 7131,
      "##_email": 7132,
      "ins": 7133,
      "##peg": 7134,
      "ell": 7135,
      "scrap": 7136,
      "poll": 7137,
      "sales": 7138,
      "punct": 7139,
      "goes": 7140,
      "distinct": 7141,
      "##orage": 7142,
      "settext": 7143,
      "shar": 7144,
      "builder": 7145,
      "##andom": 7146,
      "##param": 7147,
      "##fill": 7148,
      "##inst": 7149,
      "##gether": 7150,
      "firstname": 7151,
      "charset": 7152,
      "mt": 7153,
      "##wait": 7154,
      "##[[": 7155,
      "##_pair": 7156,
      "121": 7157,
      "curve": 7158,
      "]==": 7159,
      "dol": 7160,
      "che": 7161,
      "redis": 7162,
      "drawing": 7163,
      "steps": 7164,
      "pressed": 7165,
      "i2": 7166,
      "stringvar": 7167,
      "branch": 7168,
      "/(": 7169,
      "around": 7170,
      "family": 7171,
      "',)": 7172,
      "##_dates": 7173,
      "unsigned": 7174,
      "##score": 7175,
      "serializer": 7176,
      "##ression": 7177,
      "##requ": 7178,
      "is_valid": 7179,
      "##_wrap": 7180,
      "##itions": 7181,
      "##\")[": 7182,
      "##soft": 7183,
      "relative": 7184,
      "##_counter": 7185,
      "##buf": 7186,
      "##entials": 7187,
      "focus": 7188,
      "gca": 7189,
      "##004": 7190,
      "var2": 7191,
      "matched": 7192,
      "masked": 7193,
      "comparing": 7194,
      "##escape": 7195,
      "(\"//": 7196,
      "lista": 7197,
      "organ": 7198,
      "adjust": 7199,
      "##_option": 7200,
      "yyy": 7201,
      "ready": 7202,
      ".]])": 7203,
      "h5": 7204,
      "mb": 7205,
      "soc": 7206,
      "multiindex": 7207,
      "hashlib": 7208,
      "definition": 7209,
      ">]": 7210,
      "##_axis": 7211,
      "five": 7212,
      "##vals": 7213,
      "##go": 7214,
      "isdigit": 7215,
      "##ording": 7216,
      "2002": 7217,
      "##_property": 7218,
      "##less": 7219,
      "##ves": 7220,
      "styles": 7221,
      "##_bin": 7222,
      "{})": 7223,
      "fontsize": 7224,
      "segment": 7225,
      "frozen": 7226,
      ".%": 7227,
      "##+--------": 7228,
      "##_client": 7229,
      "friend": 7230,
      "alb": 7231,
      "int32": 7232,
      "helper": 7233,
      "content_type": 7234,
      "##fa": 7235,
      "##../": 7236,
      "##pengine": 7237,
      "109": 7238,
      "##_json": 7239,
      "'=": 7240,
      "##cat": 7241,
      "##uler": 7242,
      "mechan": 7243,
      "faster": 7244,
      "launch": 7245,
      "33333": 7246,
      "_t": 7247,
      "wm": 7248,
      "##_op": 7249,
      "##orator": 7250,
      "those": 7251,
      "##aps": 7252,
      "measure": 7253,
      "fastest": 7254,
      "setsizer": 7255,
      "##heet": 7256,
      "really": 7257,
      "val2": 7258,
      "='')": 7259,
      "actions": 7260,
      "fb": 7261,
      "##orary": 7262,
      "##ecess": 7263,
      "splitting": 7264,
      "logic": 7265,
      "conversion": 7266,
      "***": 7267,
      "h3": 7268,
      "tv": 7269,
      "mystring": 7270,
      "##_lists": 7271,
      "222": 7272,
      "signals": 7273,
      "visible": 7274,
      "##_common": 7275,
      "lit": 7276,
      "}\"": 7277,
      "##null": 7278,
      "##raint": 7279,
      "##\"):": 7280,
      "##_product": 7281,
      "eps": 7282,
      "##sg": 7283,
      "##mask": 7284,
      "vbox": 7285,
      "##_search": 7286,
      "staticmethod": 7287,
      "crop": 7288,
      "tp": 7289,
      "##_html": 7290,
      "detail": 7291,
      "ticks": 7292,
      "ha": 7293,
      "##_folder": 7294,
      "##proxy": 7295,
      "##iter__": 7296,
      "gz": 7297,
      "##ari": 7298,
      "##acing": 7299,
      "counting": 7300,
      "reply": 7301,
      "worksheet": 7302,
      "##\\.\\": 7303,
      "333": 7304,
      "au": 7305,
      "were": 7306,
      "##matrix": 7307,
      "##ern": 7308,
      "reason": 7309,
      "(''.": 7310,
      "item1": 7311,
      "executable": 7312,
      "soap": 7313,
      "##ategory": 7314,
      "patches": 7315,
      "schedule": 7316,
      "##ball": 7317,
      "##maz": 7318,
      "##ivid": 7319,
      "##aaaaaaaa": 7320,
      "ud": 7321,
      "('[": 7322,
      "('{}": 7323,
      "172": 7324,
      "\".\"": 7325,
      "12345": 7326,
      "known": 7327,
      "tel": 7328,
      "arc": 7329,
      "__iter__": 7330,
      "##_foo": 7331,
      "line1": 7332,
      "##eq": 7333,
      "##_save": 7334,
      "component": 7335,
      "({\"": 7336,
      "saf": 7337,
      "yahoo": 7338,
      "##_post": 7339,
      "uses": 7340,
      "##scroll": 7341,
      "##configure": 7342,
      "##dl": 7343,
      "##ders": 7344,
      "##mw": 7345,
      "')),": 7346,
      "going": 7347,
      "configuration": 7348,
      "operations": 7349,
      "ticker": 7350,
      "half": 7351,
      "val1": 7352,
      "!')": 7353,
      "catch": 7354,
      "male": 7355,
      "pts": 7356,
      "##utor": 7357,
      "##params": 7358,
      "slider": 7359,
      "several": 7360,
      "+')": 7361,
      "ft": 7362,
      "##escription": 7363,
      "##_day": 7364,
      "##_layout": 7365,
      "input_file": 7366,
      "##111": 7367,
      "##bytes": 7368,
      "absolute": 7369,
      "fraction": 7370,
      "##_img": 7371,
      "serve": 7372,
      "internal": 7373,
      "layer": 7374,
      "pic": 7375,
      "sil": 7376,
      "samples": 7377,
      "newaxis": 7378,
      "0x7f": 7379,
      "manip": 7380,
      "successful": 7381,
      "archive": 7382,
      "human": 7383,
      "fav": 7384,
      "##_nodes": 7385,
      "conditional": 7386,
      "##ghijkl": 7387,
      "##qrst": 7388,
      "##ality": 7389,
      "trunc": 7390,
      "consumer": 7391,
      "cached": 7392,
      "u04": 7393,
      "major": 7394,
      "implementation": 7395,
      "<!--": 7396,
      ";\">": 7397,
      "lc": 7398,
      "might": 7399,
      "ranges": 7400,
      "pytz": 7401,
      "2003": 7402,
      "projection": 7403,
      "closing": 7404,
      "symbols": 7405,
      "crypt": 7406,
      "##_cache": 7407,
      "indexing": 7408,
      "##dev": 7409,
      "float32": 7410,
      "replacing": 7411,
      "##^^^^": 7412,
      "##middleware": 7413,
      "(\"-": 7414,
      "mn": 7415,
      "##erred": 7416,
      "\")[": 7417,
      "new_list": 7418,
      ":]:": 7419,
      "(@": 7420,
      "tx": 7421,
      "thumb": 7422,
      "')['": 7423,
      "arbit": 7424,
      "##ised": 7425,
      "=('": 7426,
      "central": 7427,
      "##────────": 7428,
      "menubar": 7429,
      "subst": 7430,
      "##////": 7431,
      ")\",": 7432,
      "il": 7433,
      "##lt": 7434,
      "##/\\": 7435,
      "street": 7436,
      "plan": 7437,
      "=\"\"": 7438,
      "logs": 7439,
      "health": 7440,
      "134": 7441,
      "##_gen": 7442,
      "##@@@@@@@@@@@@@@@@": 7443,
      "##cache": 7444,
      "##erature": 7445,
      "ant": 7446,
      "##olog": 7447,
      "installed": 7448,
      "interest": 7449,
      "##control": 7450,
      "##built": 7451,
      "##wds": 7452,
      "declarative": 7453,
      "aggregate": 7454,
      "song": 7455,
      "buff": 7456,
      "longest": 7457,
      "according": 7458,
      "quotes": 7459,
      "mor": 7460,
      "sg": 7461,
      "##mult": 7462,
      "##odb": 7463,
      "##_last": 7464,
      "##_wh": 7465,
      "##_param": 7466,
      "mill": 7467,
      "']=": 7468,
      "numer": 7469,
      "creation": 7470,
      ",:]": 7471,
      "=$": 7472,
      "##500": 7473,
      "from_iterable": 7474,
      "##ickle": 7475,
      "division": 7476,
      "##scrib": 7477,
      "memo": 7478,
      "00000000e": 7479,
      "circ": 7480,
      "microsoft": 7481,
      "mul": 7482,
      "##sec": 7483,
      "##irth": 7484,
      "mot": 7485,
      "##au": 7486,
      "##uri": 7487,
      "114": 7488,
      "##_handle": 7489,
      "lastname": 7490,
      "credits": 7491,
      "##mixin": 7492,
      "_f": 7493,
      "ep": 7494,
      "##~/": 7495,
      "##ased": 7496,
      "setter": 7497,
      "##_arr": 7498,
      "#----------------------------------------------------------------------": 7499,
      "wt": 7500,
      "##_ap": 7501,
      "##_rect": 7502,
      "latitude": 7503,
      "##flags": 7504,
      "corpus": 7505,
      "900": 7506,
      "sem": 7507,
      "##ving": 7508,
      "phys": 7509,
      "##criptor": 7510,
      "##aff": 7511,
      "##ural": 7512,
      "took": 7513,
      "ensure": 7514,
      "##_ptr": 7515,
      "scrol": 7516,
      "##callback": 7517,
      "##_indices": 7518,
      "}:": 7519,
      "shap": 7520,
      "##_profile": 7521,
      "beginning": 7522,
      "##cursor": 7523,
      "512": 7524,
      "##_cond": 7525,
      "])))": 7526,
      "subtract": 7527,
      ".])": 7528,
      "wed": 7529,
      "importerror": 7530,
      "##abc": 7531,
      "##ceed": 7532,
      "##_pattern": 7533,
      "number_of": 7534,
      "'-'": 7535,
      "bitmap": 7536,
      "makes": 7537,
      "##mnop": 7538,
      "trigger": 7539,
      "##_box": 7540,
      "repeated": 7541,
      "##ecessary": 7542,
      "##omial": 7543,
      "##untu": 7544,
      "mainframe": 7545,
      "lazy": 7546,
      "##oy": 7547,
      "##ember": 7548,
      "ship": 7549,
      "periods": 7550,
      "401": 7551,
      "amaz": 7552,
      "##b2": 7553,
      "##_factory": 7554,
      "##_session": 7555,
      "security": 7556,
      "##encies": 7557,
      "removed": 7558,
      "cx": 7559,
      "##_us": 7560,
      "##paces": 7561,
      "##_like": 7562,
      "##ictext": 7563,
      "tempfile": 7564,
      "loader": 7565,
      "terminate": 7566,
      "__setitem__": 7567,
      "ic": 7568,
      "todo": 7569,
      "highest": 7570,
      "verify": 7571,
      "development": 7572,
      "\"(": 7573,
      "fab": 7574,
      "##ipe": 7575,
      "col3": 7576,
      "dictreader": 7577,
      "240": 7578,
      "##iteration": 7579,
      "accessing": 7580,
      "123456789": 7581,
      "nod": 7582,
      "##eger": 7583,
      "##earray": 7584,
      "##aily": 7585,
      "set_xt": 7586,
      "moz": 7587,
      "population": 7588,
      "ctrl": 7589,
      "=&": 7590,
      "cart": 7591,
      "##ours": 7592,
      "##uvw": 7593,
      "having": 7594,
      "lp": 7595,
      "##_am": 7596,
      "instr": 7597,
      "##estr": 7598,
      "##ewid": 7599,
      "=\"#": 7600,
      "126": 7601,
      "##_hel": 7602,
      "')))": 7603,
      "comparison": 7604,
      "hh": 7605,
      "sam": 7606,
      "__del": 7607,
      "136": 7608,
      "separated": 7609,
      "nth": 7610,
      "##ina": 7611,
      "##erial": 7612,
      "##orem": 7613,
      "##peed": 7614,
      "##_we": 7615,
      "output_file": 7616,
      "##player": 7617,
      "punctuation": 7618,
      "444": 7619,
      "ey": 7620,
      "lim": 7621,
      "##tocol": 7622,
      "datat": 7623,
      "##_train": 7624,
      "','.": 7625,
      "highlight": 7626,
      "combined": 7627,
      "identifier": 7628,
      "floor": 7629,
      "corresponding": 7630,
      "-----------------------------------------------------------------": 7631,
      "##spec": 7632,
      "myfunc": 7633,
      "general": 7634,
      "('.//": 7635,
      "bounds": 7636,
      "camera": 7637,
      "evaluate": 7638,
      "##ecolor": 7639,
      "e2": 7640,
      "jj": 7641,
      "much": 7642,
      "appengine": 7643,
      "textvariable": 7644,
      "serializers": 7645,
      "largest": 7646,
      "jinja2": 7647,
      "ratio": 7648,
      "##alpha": 7649,
      "terms": 7650,
      "combination": 7651,
      "\"?": 7652,
      "_d": 7653,
      "lw": 7654,
      "sibling": 7655,
      "##rs": 7656,
      "runs": 7657,
      "codecs": 7658,
      "##_global": 7659,
      "##folder": 7660,
      "##010": 7661,
      "fileinput": 7662,
      "indexerror": 7663,
      "requesthandler": 7664,
      "activate": 7665,
      ",%": 7666,
      "-\\": 7667,
      "212": 7668,
      "qmainwindow": 7669,
      "##urface": 7670,
      "(\"{": 7671,
      "##_lib": 7672,
      "shop": 7673,
      "##_split": 7674,
      "2004": 7675,
      "recip": 7676,
      "##_chunk": 7677,
      "##posit": 7678,
      "##11111111": 7679,
      "##canvas": 7680,
      "##yc": 7681,
      "geo": 7682,
      "|--": 7683,
      "##xs": 7684,
      "##instance": 7685,
      "([-": 7686,
      "docstring": 7687,
      "slot": 7688,
      "distribution": 7689,
      "cmp": 7690,
      "dp": 7691,
      "ten": 7692,
      "vi": 7693,
      "##4e": 7694,
      "datetime64": 7695,
      "(*[": 7696,
      "boto": 7697,
      ">(": 7698,
      "##intypes": 7699,
      "alert": 7700,
      "##_sl": 7701,
      "##0000000": 7702,
      "units": 7703,
      "113": 7704,
      "setuptools": 7705,
      "1999": 7706,
      "fetchall": 7707,
      "efficiently": 7708,
      "sed": 7709,
      "##_le": 7710,
      "pars": 7711,
      "render_template": 7712,
      "ie": 7713,
      "kwds": 7714,
      "vstack": 7715,
      "together": 7716,
      "==\"": 7717,
      "##ptr": 7718,
      "func1": 7719,
      "brack": 7720,
      "expressions": 7721,
      "##_update": 7722,
      "[...,": 7723,
      "/?": 7724,
      "air": 7725,
      "ear": 7726,
      "##za": 7727,
      "lik": 7728,
      "cars": 7729,
      "dimensions": 7730,
      "rotate": 7731,
      "veh": 7732,
      "business": 7733,
      "mx": 7734,
      "ylim": 7735,
      "##det": 7736,
      "('''": 7737,
      "individ": 7738,
      "looping": 7739,
      "##_job": 7740,
      "##********************************": 7741,
      "x86_64": 7742,
      "htt": 7743,
      "android": 7744,
      "imread": 7745,
      "posts": 7746,
      "activity": 7747,
      "##_columns": 7748,
      "##_create": 7749,
      "pot": 7750,
      "##post": 7751,
      "##lify": 7752,
      "##ader": 7753,
      "adv": 7754,
      "124": 7755,
      "unic": 7756,
      "disk": 7757,
      "typ": 7758,
      "rolling": 7759,
      "##571428": 7760,
      "arbitrary": 7761,
      ")})": 7762,
      "##cell": 7763,
      "##tain": 7764,
      "##oloop": 7765,
      "##_ne": 7766,
      "longitude": 7767,
      "weekday": 7768,
      "\"\")": 7769,
      "dup": 7770,
      "##*[": 7771,
      "vertex": 7772,
      "f8": 7773,
      "##undle": 7774,
      "##_step": 7775,
      "##_seq": 7776,
      "deleted": 7777,
      "ncols": 7778,
      "...]": 7779,
      "item2": 7780,
      "produc": 7781,
      "actually": 7782,
      "yet": 7783,
      "##ience": 7784,
      "togg": 7785,
      "minor": 7786,
      "checked": 7787,
      "away": 7788,
      "izip_longest": 7789,
      "wel": 7790,
      "line2": 7791,
      "slic": 7792,
      "mysqldb": 7793,
      "music": 7794,
      "##ghijklmnop": 7795,
      "##ewidget": 7796,
      ",.": 7797,
      "##orrect": 7798,
      "##icit": 7799,
      "##_vals": 7800,
      "recursion": 7801,
      "plugin": 7802,
      "##qrstuvw": 7803,
      "lbl": 7804,
      "qv": 7805,
      "##_ent": 7806,
      "##uary": 7807,
      "##fb": 7808,
      "##adcast": 7809,
      "##_pol": 7810,
      "##_pack": 7811,
      "sym": 7812,
      "creat": 7813,
      "finditer": 7814,
      "##cles": 7815,
      "primes": 7816,
      "##_mean": 7817,
      "##most": 7818,
      "##hel": 7819,
      "':['": 7820,
      "start_date": 7821,
      "packet": 7822,
      "updating": 7823,
      "set_ylim": 7824,
      "mi": 7825,
      "##gc": 7826,
      "##rm": 7827,
      "priority": 7828,
      "t0": 7829,
      "##ister": 7830,
      "attemp": 7831,
      "design": 7832,
      "pipeline": 7833,
      "##_true": 7834,
      "000000000": 7835,
      "jar": 7836,
      "tl": 7837,
      "enem": 7838,
      "116": 7839,
      "##price": 7840,
      "feb": 7841,
      "needs": 7842,
      "awk": 7843,
      "navig": 7844,
      "bd": 7845,
      "##ble": 7846,
      "inputfile": 7847,
      "dict2": 7848,
      "rdd": 7849,
      "sit": 7850,
      "##cb": 7851,
      "]);": 7852,
      "interactive": 7853,
      "configparser": 7854,
      "building": 7855,
      "##_current": 7856,
      "$('": 7857,
      "211": 7858,
      "bp": 7859,
      "rf": 7860,
      "rid": 7861,
      "##wt": 7862,
      "acqu": 7863,
      "multiline": 7864,
      "##ookie": 7865,
      "never": 7866,
      "assertequal": 7867,
      "render_to": 7868,
      "]|": 7869,
      "yaxis": 7870,
      "##offset": 7871,
      "shut": 7872,
      "apps": 7873,
      "##_domain": 7874,
      "orientation": 7875,
      "webapp2": 7876,
      "\"',": 7877,
      "----": 7878,
      "ioloop": 7879,
      "sns": 7880,
      "##gres": 7881,
      "##major": 7882,
      "converter": 7883,
      "+)\\": 7884,
      "fake": 7885,
      "ping": 7886,
      "##ou": 7887,
      "##x2": 7888,
      "##iling": 7889,
      "logged": 7890,
      "##awn": 7891,
      "hp": 7892,
      "##_if": 7893,
      "resample": 7894,
      "##_dep": 7895,
      "='%": 7896,
      "assuming": 7897,
      "##unicode": 7898,
      "prepar": 7899,
      "autoc": 7900,
      "mob": 7901,
      "treeview": 7902,
      "signature": 7903,
      "##_coord": 7904,
      "derived": 7905,
      "iv": 7906,
      "lex": 7907,
      "##3e": 7908,
      "##rowser": 7909,
      "searching": 7910,
      "reload": 7911,
      "'-',": 7912,
      "cipher": 7913,
      "america": 7914,
      "drag": 7915,
      "jack": 7916,
      "xff": 7917,
      "##??": 7918,
      "##utf8": 7919,
      "##thers": 7920,
      "##iler": 7921,
      "\":[": 7922,
      "##_bl": 7923,
      "##_options": 7924,
      "mechanize": 7925,
      "little": 7926,
      "east": 7927,
      "##wx": 7928,
      "##ij": 7929,
      "elapsed": 7930,
      "scene": 7931,
      "south": 7932,
      "##proc": 7933,
      "##321": 7934,
      "##1234": 7935,
      "interp": 7936,
      "##ongo": 7937,
      "##metaclass": 7938,
      "including": 7939,
      "made": 7940,
      "pull": 7941,
      "##quote": 7942,
      "=\",": 7943,
      "##imation": 7944,
      "usa": 7945,
      "[::": 7946,
      "##[^\\": 7947,
      "##(?:\\": 7948,
      "preser": 7949,
      "gamma": 7950,
      "xticks": 7951,
      "my_": 7952,
      "dfs": 7953,
      "perl": 7954,
      "gauss": 7955,
      "authentication": 7956,
      "gnu": 7957,
      "##_return": 7958,
      "cloud": 7959,
      "ubuntu": 7960,
      "\"*": 7961,
      "##ln": 7962,
      "alloc": 7963,
      "144": 7964,
      "##_cols": 7965,
      "generating": 7966,
      "2nd": 7967,
      "sug": 7968,
      "##ists": 7969,
      "##uby": 7970,
      "##background": 7971,
      "directories": 7972,
      "##_objects": 7973,
      "##_delete": 7974,
      "##(?<=": 7975,
      "picture": 7976,
      "555": 7977,
      "eof": 7978,
      "k1": 7979,
      "##kits": 7980,
      "##ada": 7981,
      "check_output": 7982,
      "effect": 7983,
      "balance": 7984,
      "social": 7985,
      ":(": 7986,
      "u1": 7987,
      "water": 7988,
      "##_vector": 7989,
      "monitor": 7990,
      "rotation": 7991,
      "set_xlim": 7992,
      "si": 7993,
      "vow": 7994,
      "##ius": 7995,
      "getlogger": 7996,
      "maps": 7997,
      "10000000": 7998,
      "##wrapper": 7999,
      "amazon": 8000,
      "qvboxlayout": 8001,
      "/')": 8002,
      "ht": 8003,
      "##fit": 8004,
      "cool": 8005,
      "##012": 8006,
      "##ibility": 8007,
      "onclick": 8008,
      "##_spec": 8009,
      "##park": 8010,
      "processed": 8011,
      "##ysis": 8012,
      "scrollbar": 8013,
      "*.": 8014,
      "##oices": 8015,
      "##eting": 8016,
      "##ipse": 8017,
      "opening": 8018,
      "statements": 8019,
      "accum": 8020,
      "##sorted": 8021,
      "theano": 8022,
      "117": 8023,
      "fieldnames": 8024,
      "restart": 8025,
      "performance": 8026,
      "crawl": 8027,
      "$.": 8028,
      "lab": 8029,
      "##pool": 8030,
      "dataframes": 8031,
      "##_dig": 8032,
      "##_float": 8033,
      "##ainer": 8034,
      "directly": 8035,
      "infinit": 8036,
      "##qrstuvwxyz": 8037,
      "(!": 8038,
      "dark": 8039,
      "('--": 8040,
      "mapper": 8041,
      "editor": 8042,
      "=/": 8043,
      "drive": 8044,
      "('(": 8045,
      "##odel": 8046,
      "plus": 8047,
      "##_vars": 8048,
      "svg": 8049,
      "mpl_tool": 8050,
      "aff": 8051,
      "stem": 8052,
      "repo": 8053,
      "##ections": 8054,
      "get_c": 8055,
      "141": 8056,
      "##_contents": 8057,
      "itself": 8058,
      "happen": 8059,
      ",,": 8060,
      "b3": 8061,
      "band": 8062,
      "yi": 8063,
      "##hr": 8064,
      "getc": 8065,
      "132": 8066,
      "qtable": 8067,
      "statictext": 8068,
      "phi": 8069,
      "##_grid": 8070,
      "waiting": 8071,
      "pen": 8072,
      "zoom": 8073,
      "##aper": 8074,
      "'?": 8075,
      "pb": 8076,
      "##a0": 8077,
      "##gress": 8078,
      "('\"": 8079,
      "##_de": 8080,
      "dos": 8081,
      "modeladmin": 8082,
      "access_token": 8083,
      "##issions": 8084,
      "set_ylabel": 8085,
      "##xxxxxxxx": 8086,
      "__setattr__": 8087,
      "##_normal": 8088,
      "mpl_toolkits": 8089,
      "six": 8090,
      "##long": 8091,
      "importing": 8092,
      "user_input": 8093,
      "newlist": 8094,
      "##333": 8095,
      "170": 8096,
      "stopiteration": 8097,
      "controller": 8098,
      "north": 8099,
      "paste": 8100,
      "8000": 8101,
      "kv": 8102,
      "to_csv": 8103,
      "spark": 8104,
      "postgres": 8105,
      "##_addr": 8106,
      "great": 8107,
      "assignment": 8108,
      "properly": 8109,
      "deepcopy": 8110,
      "##onal": 8111,
      "##ately": 8112,
      "##ability": 8113,
      "strs": 8114,
      "##images": 8115,
      "sequences": 8116,
      "codes": 8117,
      "##current": 8118,
      "##(.*?)": 8119,
      "[...]": 8120,
      "480": 8121,
      "pin": 8122,
      "##_display": 8123,
      "idle": 8124,
      "138": 8125,
      "decrypt": 8126,
      "[:,:,": 8127,
      "hosts": 8128,
      "##_async": 8129,
      "csrf": 8130,
      "candidate": 8131,
      "wintypes": 8132,
      "__built": 8133,
      "resid": 8134,
      "##iment": 8135,
      "139": 8136,
      "'],['": 8137,
      "delimit": 8138,
      "func2": 8139,
      "##_seconds": 8140,
      "front": 8141,
      "__getattr__": 8142,
      "##_only": 8143,
      "analy": 8144,
      "httplib": 8145,
      "hd": 8146,
      "hook": 8147,
      "~/": 8148,
      "##_numbers": 8149,
      "nonzero": 8150,
      "aes": 8151,
      "criter": 8152,
      "gi": 8153,
      "##rr": 8154,
      "##_5": 8155,
      "']].": 8156,
      "pkg": 8157,
      "%.": 8158,
      "350": 8159,
      "sizes": 8160,
      "##_auth": 8161,
      "##inator": 8162,
      "vectors": 8163,
      "]\"": 8164,
      "her": 8165,
      "##dout": 8166,
      "unstack": 8167,
      "##domain": 8168,
      "ylabel": 8169,
      "##stuff": 8170,
      "mytable": 8171,
      "##_total": 8172,
      "220": 8173,
      "dbus": 8174,
      "##counter": 8175,
      "8080": 8176,
      "vertices": 8177,
      "separator": 8178,
      ":')": 8179,
      "tro": 8180,
      "xmax": 8181,
      "##gy": 8182,
      "##ros": 8183,
      "outf": 8184,
      "connections": 8185,
      "brand": 8186,
      "ml": 8187,
      "sensor": 8188,
      "xdata": 8189,
      "##_10": 8190,
      "##uzz": 8191,
      "##b1": 8192,
      "()').": 8193,
      "file_path": 8194,
      "userid": 8195,
      "plots": 8196,
      "typed": 8197,
      "win32com": 8198,
      "}/": 8199,
      "('|": 8200,
      "locations": 8201,
      "execution": 8202,
      "]'": 8203,
      "listof": 8204,
      "unix": 8205,
      "splitext": 8206,
      "suppress": 8207,
      "xlim": 8208,
      "substit": 8209,
      "sz": 8210,
      "##oke": 8211,
      "##f0": 8212,
      "##alc": 8213,
      "python27": 8214,
      "written": 8215,
      "##_visible": 8216,
      "##999999999999": 8217,
      "1st": 8218,
      "210": 8219,
      "##pan": 8220,
      "outputs": 8221,
      "##colour": 8222,
      "typen": 8223,
      "entire": 8224,
      "##package": 8225,
      "titles": 8226,
      "album": 8227,
      "eb": 8228,
      "mlab": 8229,
      "##ooth": 8230,
      "##ilities": 8231,
      "119": 8232,
      "passwd": 8233,
      "##_hash": 8234,
      "##667": 8235,
      "gives": 8236,
      "scalar": 8237,
      "components": 8238,
      "estim": 8239,
      "birth": 8240,
      "t3": 8241,
      "...\"": 8242,
      "argsort": 8243,
      "temperature": 8244,
      "students": 8245,
      "explicit": 8246,
      "necessary": 8247,
      "rm": 8248,
      "##ued": 8249,
      "##he": 8250,
      "##inc": 8251,
      "##update": 8252,
      "(\"{}": 8253,
      "end_date": 8254,
      "latin": 8255,
      "longer": 8256,
      "combobox": 8257,
      "pyspark": 8258,
      ")\")": 8259,
      "few": 8260,
      "nice": 8261,
      "x9": 8262,
      "subs": 8263,
      "sizeof": 8264,
      "backends": 8265,
      ":].": 8266,
      "programming": 8267,
      "verb": 8268,
      "moving": 8269,
      "##tomany": 8270,
      "[^": 8271,
      "xlabel": 8272,
      "##3f": 8273,
      "##_fn": 8274,
      "(((": 8275,
      "exceptions": 8276,
      "')):": 8277,
      "##_settings": 8278,
      "ndimage": 8279,
      "snap": 8280,
      "individual": 8281,
      "b64": 8282,
      "vmin": 8283,
      "vmax": 8284,
      "']/": 8285,
      "\")))": 8286,
      "along": 8287,
      "='/": 8288,
      "##_my": 8289,
      "'.',": 8290,
      "looking": 8291,
      "coordinate": 8292,
      "mozilla": 8293,
      "'@": 8294,
      ":[": 8295,
      "tensor": 8296,
      "##b0": 8297,
      "appending": 8298,
      "quad": 8299,
      "##_required": 8300,
      "_field": 8301,
      "##'+": 8302,
      "reindex": 8303,
      "##ply": 8304,
      "##ilter": 8305,
      "unable": 8306,
      "());": 8307,
      "##806": 8308,
      "bytearray": 8309,
      "median": 8310,
      "frozenset": 8311,
      ",\\": 8312,
      "cid": 8313,
      "during": 8314,
      "##ung": 8315,
      "asyn": 8316,
      "grouper": 8317,
      "grouping": 8318,
      "##ieve": 8319,
      "win32gui": 8320,
      "obtain": 8321,
      "##children": 8322,
      "broadcast": 8323,
      "tax": 8324,
      "##_load": 8325,
      "##::-": 8326,
      "loaded": 8327,
      "##888": 8328,
      "transfer": 8329,
      "##screen": 8330,
      "assume": 8331,
      "rgba": 8332,
      "p3": 8333,
      "##ks": 8334,
      "##chron": 8335,
      "die": 8336,
      "##_times": 8337,
      "##_rate": 8338,
      "minid": 8339,
      "##_red": 8340,
      "##mediate": 8341,
      "against": 8342,
      "sphinx": 8343,
      "welcome": 8344,
      "ae": 8345,
      "k2": 8346,
      "##enable": 8347,
      "='',": 8348,
      "curses": 8349,
      "logical": 8350,
      "##_weight": 8351,
      "##answer": 8352,
      "instant": 8353,
      "sums": 8354,
      "webdriverwait": 8355,
      "##g2": 8356,
      "=[('": 8357,
      "entered": 8358,
      "##_manager": 8359,
      "dw": 8360,
      "ein": 8361,
      "mtime": 8362,
      "w1": 8363,
      "##eel": 8364,
      "##_av": 8365,
      "##rew": 8366,
      "important": 8367,
      "clf": 8368,
      "##_now": 8369,
      "##_over": 8370,
      "bottle": 8371,
      "win32con": 8372,
      "##ascii": 8373,
      "232": 8374,
      "<--": 8375,
      "jpeg": 8376,
      "nm": 8377,
      "px": 8378,
      "samp": 8379,
      "isfile": 8380,
      "buy": 8381,
      "suite": 8382,
      "##ograph": 8383,
      "corout": 8384,
      "references": 8385,
      "##---+": 8386,
      "fut": 8387,
      "mel": 8388,
      "z1": 8389,
      "##ever": 8390,
      "##-\\": 8391,
      "##extract": 8392,
      "==================================": 8393,
      "weak": 8394,
      "formatted": 8395,
      "##ramid": 8396,
      "##375": 8397,
      "##widgets": 8398,
      "regexp": 8399,
      "integerfield": 8400,
      "currency": 8401,
      "disabled": 8402,
      "software": 8403,
      "#################################################################": 8404,
      "dash": 8405,
      "pv": 8406,
      "|\\": 8407,
      "ing": 8408,
      "think": 8409,
      "extent": 8410,
      "decorated": 8411,
      "triangle": 8412,
      "meth": 8413,
      "##a4": 8414,
      "cout": 8415,
      "dead": 8416,
      "137": 8417,
      "across": 8418,
      "currently": 8419,
      "manytomany": 8420,
      "storing": 8421,
      "closest": 8422,
      "writerows": 8423,
      "his": 8424,
      "vc": 8425,
      "modul": 8426,
      "formula": 8427,
      "filtering": 8428,
      "most_common": 8429,
      "0m": 8430,
      "nw": 8431,
      "##rpc": 8432,
      "##8e": 8433,
      "pypar": 8434,
      "##istic": 8435,
      "##_sizer": 8436,
      "142": 8437,
      "fox": 8438,
      "##404": 8439,
      "alternative": 8440,
      "##ghijklmnopqrstuvwxyz": 8441,
      "bull": 8442,
      "##vm": 8443,
      "ann": 8444,
      "##_sample": 8445,
      "htmlparser": 8446,
      "understand": 8447,
      "##cutive": 8448,
      "233": 8449,
      "700": 8450,
      "eth": 8451,
      "##ded": 8452,
      "##ica": 8453,
      "##_lst": 8454,
      "endpoint": 8455,
      "render_to_response": 8456,
      "[~": 8457,
      "notes": 8458,
      "##644": 8459,
      "##_style": 8460,
      "##imple": 8461,
      "}}\"": 8462,
      "nullable": 8463,
      "store_fast": 8464,
      "__get__": 8465,
      "toolbar": 8466,
      "euro": 8467,
      "\"#": 8468,
      "*\\": 8469,
      "house": 8470,
      "##_it": 8471,
      "##812": 8472,
      "##:]": 8473,
      "asdf": 8474,
      "('/')": 8475,
      "99999": 8476,
      "##f2": 8477,
      "set_title": 8478,
      "name1": 8479,
      "textctrl": 8480,
      "field1": 8481,
      "button1": 8482,
      "]].": 8483,
      "')).": 8484,
      "hier": 8485,
      "radians": 8486,
      "credentials": 8487,
      "windll": 8488,
      "minidom": 8489,
      ",**": 8490,
      "_p": 8491,
      "daily": 8492,
      "tor": 8493,
      "##step": 8494,
      "strict": 8495,
      "mydata": 8496,
      "##_formatter": 8497,
      "ndim": 8498,
      "##]+)": 8499,
      "middleware": 8500,
      "##patterns": 8501,
      "/.": 8502,
      "##_u": 8503,
      "##utions": 8504,
      "printf": 8505,
      "##geometry": 8506,
      "']})": 8507,
      "##_dis": 8508,
      "##_types": 8509,
      "##imize": 8510,
      "129": 8511,
      "##_users": 8512,
      "('.')": 8513,
      "fileno": 8514,
      "neighbors": 8515,
      "gdk": 8516,
      "'(\\": 8517,
      ",*": 8518,
      ";&": 8519,
      "west": 8520,
      "##ih": 8521,
      "##ood": 8522,
      "##_ag": 8523,
      "##\":": 8524,
      "imported": 8525,
      "list_": 8526,
      "##ife": 8527,
      "145": 8528,
      "##ops": 8529,
      "##coords": 8530,
      "clients": 8531,
      "##upload": 8532,
      "('./": 8533,
      "management": 8534,
      "##uf": 8535,
      "##300": 8536,
      "station": 8537,
      "printer": 8538,
      "##initial": 8539,
      "##_changed": 8540,
      "correctly": 8541,
      "+(": 8542,
      "bio": 8543,
      "rr": 8544,
      "schem": 8545,
      "##eam": 8546,
      "##otes": 8547,
      "apt": 8548,
      "subscrib": 8549,
      "urlencode": 8550,
      "##_bound": 8551,
      "sport": 8552,
      "\"]]": 8553,
      "leave": 8554,
      "precision": 8555,
      "mass": 8556,
      "##mut": 8557,
      "logfile": 8558,
      "([[[": 8559,
      "pause": 8560,
      "##.*?": 8561,
      "1d": 8562,
      "301": 8563,
      "lot": 8564,
      "##job": 8565,
      "name2": 8566,
      "##ventory": 8567,
      "133": 8568,
      "united": 8569,
      "](": 8570,
      "hdf": 8571,
      "apache": 8572,
      "compat": 8573,
      "##_inet": 8574,
      "opts": 8575,
      "af_inet": 8576,
      "calculation": 8577,
      "attachment": 8578,
      "heapq": 8579,
      "---------------------------------": 8580,
      "bmp": 8581,
      "nargs": 8582,
      "pw": 8583,
      "##s_by": 8584,
      "##_login": 8585,
      "##mo": 8586,
      "##++": 8587,
      "exper": 8588,
      "##iple": 8589,
      "myc": 8590,
      "writelines": 8591,
      "spawn": 8592,
      "##rams": 8593,
      "univers": 8594,
      "pymongo": 8595,
      "bri": 8596,
      "cases": 8597,
      "xmin": 8598,
      "##gu": 8599,
      "getsize": 8600,
      "endblock": 8601,
      "##_hint": 8602,
      "ipsum": 8603,
      "##_the": 8604,
      "greater": 8605,
      "wikip": 8606,
      "p0": 8607,
      "rx": 8608,
      "##now": 8609,
      "##tool": 8610,
      "##arter": 8611,
      "pyramid": 8612,
      "003": 8613,
      "##_body": 8614,
      "1970": 8615,
      "##875": 8616,
      "populate": 8617,
      "boundary": 8618,
      "degrees": 8619,
      "gradient": 8620,
      "fem": 8621,
      "gmt": 8622,
      "##_api": 8623,
      "##rot": 8624,
      "story": 8625,
      "##abb": 8626,
      "startup": 8627,
      "##_non": 8628,
      "##empty": 8629,
      "##ookup": 8630,
      "}),": 8631,
      "ib": 8632,
      "##sby": 8633,
      "url_for": 8634,
      "ends": 8635,
      "representation": 8636,
      "id_any": 8637,
      "3f": 8638,
      "bundle": 8639,
      "ij": 8640,
      "rdf": 8641,
      "san": 8642,
      "##5e": 8643,
      "##hot": 8644,
      "('#": 8645,
      "##emap": 8646,
      "trial": 8647,
      "##mainder": 8648,
      "##_prefix": 8649,
      "##perties": 8650,
      "retriev": 8651,
      "537": 8652,
      "##first": 8653,
      "aspect": 8654,
      "##===": 8655,
      "##_socket": 8656,
      "useful": 8657,
      "155": 8658,
      "##collection": 8659,
      "##enumber": 8660,
      "dimensional": 8661,
      "66666": 8662,
      "]\\": 8663,
      "fall": 8664,
      "games": 8665,
      "pwd": 8666,
      "rain": 8667,
      "throw": 8668,
      "##edia": 8669,
      "id1": 8670,
      "##_choices": 8671,
      "addresses": 8672,
      "school": 8673,
      "g1": 8674,
      "##mission": 8675,
      "##yp": 8676,
      "##ponent": 8677,
      "##aker": 8678,
      "]]]": 8679,
      "toplevel": 8680,
      "fillvalue": 8681,
      "##vari": 8682,
      ".....:": 8683,
      "appear": 8684,
      "toggle": 8685,
      "##metaclass__": 8686,
      "__metaclass__": 8687,
      "##izard": 8688,
      "##imension": 8689,
      "id2": 8690,
      "accounts": 8691,
      "identity": 8692,
      "neighbor": 8693,
      "cust": 8694,
      "g2": 8695,
      "##_plot": 8696,
      "##vl": 8697,
      "touch": 8698,
      "__import": 8699,
      "])[": 8700,
      "requires": 8701,
      "dateutil": 8702,
      "##_rgb": 8703,
      "permission": 8704,
      "##members": 8705,
      "intervals": 8706,
      "##_connect": 8707,
      "dra": 8708,
      "myframe": 8709,
      "queries": 8710,
      "135": 8711,
      "##597": 8712,
      "sourc": 8713,
      "visited": 8714,
      "hr": 8715,
      "hol": 8716,
      "##rict": 8717,
      "##rices": 8718,
      "##6c": 8719,
      "fish": 8720,
      "datab": 8721,
      "(\":": 8722,
      "##aged": 8723,
      "_meta": 8724,
      "##3c": 8725,
      "##\"\",": 8726,
      "divide": 8727,
      "##509": 8728,
      "##zzzz": 8729,
      "set_major": 8730,
      "snip": 8731,
      "executing": 8732,
      "##_links": 8733,
      "gold": 8734,
      "nos": 8735,
      "uix": 8736,
      "##_env": 8737,
      "##room": 8738,
      "dial": 8739,
      "##_lower": 8740,
      "##contains": 8741,
      "maybe": 8742,
      "ascending": 8743,
      "mongodb": 8744,
      "nick": 8745,
      "sid": 8746,
      "##glob": 8747,
      "##roke": 8748,
      "##646": 8749,
      "translation": 8750,
      ")==": 8751,
      "bid": 8752,
      "l3": 8753,
      "pytest": 8754,
      "##014": 8755,
      "##_lat": 8756,
      "##_generator": 8757,
      "ioerror": 8758,
      "einsum": 8759,
      "4000": 8760,
      "]')": 8761,
      "str1": 8762,
      "##_sent": 8763,
      "##_write": 8764,
      "namespaces": 8765,
      "##_connection": 8766,
      "##digest": 8767,
      "bt": 8768,
      "ops": 8769,
      "zone": 8770,
      "##d0": 8771,
      "('>": 8772,
      "__eq": 8773,
      "##span": 8774,
      "placeholder": 8775,
      "##_selector": 8776,
      "scraping": 8777,
      "__eq__": 8778,
      "<?": 8779,
      "##nl": 8780,
      "()-": 8781,
      "trad": 8782,
      "##_ticks": 8783,
      "##add__": 8784,
      "backref": 8785,
      "}}\">": 8786,
      "popup": 8787,
      "depart": 8788,
      "recursively": 8789,
      "isnull": 8790,
      "james": 8791,
      "##uge": 8792,
      "##_none": 8793,
      "argmax": 8794,
      "##_location": 8795,
      "consecutive": 8796,
      "hierarch": 8797,
      "wa": 8798,
      "x02": 8799,
      "zz": 8800,
      "zmq": 8801,
      "##integer": 8802,
      "##_clo": 8803,
      "floats": 8804,
      "constraint": 8805,
      "+)',": 8806,
      "xa0": 8807,
      "services": 8808,
      "##_letters": 8809,
      "wikipedia": 8810,
      "__import__": 8811,
      "=.": 8812,
      "mig": 8813,
      "tbl": 8814,
      "##hes": 8815,
      "\"\"\")": 8816,
      "##bye": 8817,
      "##876": 8818,
      "folders": 8819,
      "teams": 8820,
      "rsplit": 8821,
      "9999": 8822,
      "percentage": 8823,
      "sf": 8824,
      "v3": 8825,
      "##lar": 8826,
      "datetimeindex": 8827,
      "##_ref": 8828,
      "##reduce": 8829,
      "##_exp": 8830,
      "##subclass": 8831,
      "encrypted": 8832,
      "=<": 8833,
      "vtk": 8834,
      "##_tuples": 8835,
      "118": 8836,
      "webpage": 8837,
      "wanted": 8838,
      "##_parent": 8839,
      "##memory": 8840,
      "learn": 8841,
      "coroutine": 8842,
      "f4": 8843,
      "others": 8844,
      "qlabel": 8845,
      "##year": 8846,
      "##_dt": 8847,
      "matlab": 8848,
      "##110": 8849,
      "##egg": 8850,
      "##interrupt": 8851,
      "distutils": 8852,
      "describ": 8853,
      "##results": 8854,
      "create_engine": 8855,
      "typename": 8856,
      "qty": 8857,
      "##directory": 8858,
      "mystr": 8859,
      "#########": 8860,
      "##pyx": 8861,
      "##_hist": 8862,
      "188": 8863,
      "shows": 8864,
      "suit": 8865,
      "nbsp": 8866,
      "##options": 8867,
      "training": 8868,
      "contours": 8869,
      "pyparsing": 8870,
      "320": 8871,
      "a0": 8872,
      "a_list": 8873,
      "oh": 8874,
      "##_uri": 8875,
      "##etest": 8876,
      "##acity": 8877,
      "##usion": 8878,
      "path_to": 8879,
      "][\"": 8880,
      "ordering": 8881,
      "dirpath": 8882,
      "friends": 8883,
      "##_flag": 8884,
      "interpreter": 8885,
      "?)": 8886,
      "lr": 8887,
      "mil": 8888,
      "pear": 8889,
      "##la": 8890,
      "##384": 8891,
      "##browser": 8892,
      "##inish": 8893,
      "##ares": 8894,
      "impro": 8895,
      "linest": 8896,
      "itervalues": 8897,
      "wordlist": 8898,
      "##phone": 8899,
      "gov": 8900,
      "##vars": 8901,
      "##_transform": 8902,
      "tg": 8903,
      "x80": 8904,
      "##inel": 8905,
      "##_directory": 8906,
      "##107": 8907,
      "restype": 8908,
      "visual": 8909,
      "##_scores": 8910,
      "analysis": 8911,
      "rng": 8912,
      "##reens": 8913,
      "remainder": 8914,
      "##access": 8915,
      "argtypes": 8916,
      "temporary": 8917,
      "##found": 8918,
      "load_global": 8919,
      "##anced": 8920,
      "gevent": 8921,
      "registration": 8922,
      "rather": 8923,
      "vm": 8924,
      "##onym": 8925,
      "##enue": 8926,
      "##role": 8927,
      "##011": 8928,
      "##_full": 8929,
      "binascii": 8930,
      "##192": 8931,
      "followed": 8932,
      "##select": 8933,
      "iron": 8934,
      "getelementsby": 8935,
      "`.": 8936,
      "bank": 8937,
      "cities": 8938,
      "pers": 8939,
      "##hh": 8940,
      "##ocity": 8941,
      "##_timer": 8942,
      "door": 8943,
      "noun": 8944,
      "##_area": 8945,
      "345": 8946,
      "fails": 8947,
      "lorem": 8948,
      "##section": 8949,
      "##istics": 8950,
      "resources": 8951,
      "##_done": 8952,
      "heat": 8953,
      "156": 8954,
      "multipart": 8955,
      "incorrect": 8956,
      "triang": 8957,
      "##password": 8958,
      "##_pairs": 8959,
      "vehicle": 8960,
      "klass": 8961,
      "##iet": 8962,
      "',),": 8963,
      "##_cell": 8964,
      "\":{\"": 8965,
      "allclose": 8966,
      "some_list": 8967,
      "##_2d": 8968,
      "completed": 8969,
      "##encoder": 8970,
      "##_wrapper": 8971,
      "york": 8972,
      "getp": 8973,
      "places": 8974,
      "text2": 8975,
      "##_limit": 8976,
      "##irm": 8977,
      "##_msg": 8978,
      "##warning": 8979,
      "parents": 8980,
      "3600": 8981,
      "##_sequence": 8982,
      "channels": 8983,
      "##------+": 8984,
      "640": 8985,
      "a4": 8986,
      "##timestamp": 8987,
      "##_close": 8988,
      "texts": 8989,
      "##aped": 8990,
      "##102": 8991,
      "executed": 8992,
      "(\",\")": 8993,
      "c4": 8994,
      "ptr": 8995,
      "rock": 8996,
      "##3a": 8997,
      "elt": 8998,
      "'':": 8999,
      "##============": 9000,
      "##scr": 9001,
      "##implement": 9002,
      "##{})": 9003,
      "markers": 9004,
      "##_variable": 9005,
      "cards": 9006,
      "##connect": 9007,
      "mobile": 9008,
      "=\\\"": 9009,
      "dtypes": 9010,
      "tty": 9011,
      "wor": 9012,
      "xt": 9013,
      "##mov": 9014,
      "print_function": 9015,
      "get_object": 9016,
      "maint": 9017,
      "##olution": 9018,
      "urlpatterns": 9019,
      ":]))": 9020,
      "##attribute__": 9021,
      "problems": 9022,
      "bi": 9023,
      "cas": 9024,
      "##writ": 9025,
      "##oper": 9026,
      "##pad": 9027,
      "inverse": 9028,
      "##_pix": 9029,
      "filled": 9030,
      "spread": 9031,
      "multid": 9032,
      "goal": 9033,
      "##_copy": 9034,
      "##iko": 9035,
      "serialize": 9036,
      "1997": 9037,
      "ly": 9038,
      "lb": 9039,
      "q1": 9040,
      "}',": 9041,
      "##_ad": 9042,
      "##olve": 9043,
      "mymodule": 9044,
      "##_insert": 9045,
      "##_project": 9046,
      "\"{}": 9047,
      "ydata": 9048,
      "##fix": 9049,
      "examples": 9050,
      "##016": 9051,
      "out_file": 9052,
      "##_sort": 9053,
      "userprofile": 9054,
      "##_net": 9055,
      "##320": 9056,
      "selecting": 9057,
      "##_choice": 9058,
      "##_proxy": 9059,
      "frameworks": 9060,
      "##tagname": 9061,
      "9a": 9062,
      "##hip": 9063,
      "##kb": 9064,
      "##seq": 9065,
      "secs": 9066,
      "axes3d": 9067,
      "##policy": 9068,
      "stylesheet": 9069,
      "312": 9070,
      "crit": 9071,
      "mv": 9072,
      "setvalue": 9073,
      "##_dupl": 9074,
      "##_fore": 9075,
      "text1": 9076,
      "string1": 9077,
      "index_col": 9078,
      "131": 9079,
      "148": 9080,
      "heading": 9081,
      "workers": 9082,
      "##777": 9083,
      "monkey": 9084,
      "##_chars": 9085,
      "documentation": 9086,
      "related_name": 9087,
      "probably": 9088,
      "hwnd": 9089,
      "gaussian": 9090,
      "##cct": 9091,
      "##uk": 9092,
      "##ester": 9093,
      "(\"'": 9094,
      "chdir": 9095,
      "intro": 9096,
      "formset": 9097,
      "usd": 9098,
      "spin": 9099,
      "##_hand": 9100,
      "##ogn": 9101,
      "metaclass": 9102,
      "smaller": 9103,
      "piece": 9104,
      ".\",": 9105,
      "dpi": 9106,
      "eig": 9107,
      "jet": 9108,
      "nf": 9109,
      "sex": 9110,
      "##top": 9111,
      "(){": 9112,
      "##maker": 9113,
      "setlayout": 9114,
      "##_sup": 9115,
      "num1": 9116,
      "0x00": 9117,
      "##reference": 9118,
      "peak": 9119,
      "identify": 9120,
      "provide": 9121,
      "exclud": 9122,
      "determin": 9123,
      "startt": 9124,
      "##_install": 9125,
      "cstring": 9126,
      "##_main": 9127,
      "##ha": 9128,
      "prices": 9129,
      "##omb": 9130,
      "##alloc": 9131,
      "ide": 9132,
      "num2": 9133,
      "179": 9134,
      "tech": 9135,
      "##________________": 9136,
      "3a": 9137,
      "324": 9138,
      "dan": 9139,
      "dns": 9140,
      "##icles": 9141,
      "##idx": 9142,
      "##_ok": 9143,
      "extensions": 9144,
      "##udio": 9145,
      "0xff": 9146,
      "##_xml": 9147,
      "=',')": 9148,
      "keyboardinterrupt": 9149,
      "##_features": 9150,
      "##pository": 9151,
      "_data": 9152,
      "yt": 9153,
      "z2": 9154,
      "=\"%": 9155,
      "=\"\"\"": 9156,
      "checks": 9157,
      "handles": 9158,
      "##_paths": 9159,
      "downloading": 9160,
      "##queryset": 9161,
      "__getattribute__": 9162,
      "set_xlabel": 9163,
      "palette": 9164,
      "occurrences": 9165,
      "enemy": 9166,
      "miss": 9167,
      "provided": 9168,
      "websocket": 9169,
      "cfg": 9170,
      "far": 9171,
      "hay": 9172,
      "somet": 9173,
      "##zy": 9174,
      "##reewidget": 9175,
      "npy": 9176,
      "myform": 9177,
      "my_file": 9178,
      "textfield": 9179,
      "##_rad": 9180,
      "call_function": 9181,
      "[[[": 9182,
      "##_thing": 9183,
      "receive": 9184,
      "##00000000000000000000000000000000": 9185,
      "##aintext": 9186,
      "hstack": 9187,
      "##expr": 9188,
      "set_visible": 9189,
      "='|": 9190,
      "funcs": 9191,
      "leaf": 9192,
      "##tein": 9193,
      "offsets": 9194,
      "hexdigest": 9195,
      "shortcut": 9196,
      "evt_button": 9197,
      "crawler": 9198,
      "facecolor": 9199,
      "mongo": 9200,
      "##_children": 9201,
      "coefficient": 9202,
      "567": 9203,
      "##tab": 9204,
      "##edirect": 9205,
      "setobject": 9206,
      "subdir": 9207,
      "##_action": 9208,
      "##_dirs": 9209,
      "##option": 9210,
      "female": 9211,
      "tex": 9212,
      "##ief": 9213,
      "##iation": 9214,
      "##mall": 9215,
      "##ining": 9216,
      "imports": 9217,
      "set_mode": 9218,
      "##_css": 9219,
      "##_fit": 9220,
      "value_counts": 9221,
      "row1": 9222,
      "##apping": 9223,
      "##_expr": 9224,
      "depending": 9225,
      "##23456789": 9226,
      "scrolled": 9227,
      "aver": 9228,
      "cbar": 9229,
      "mary": 9230,
      "son": 9231,
      "##_import": 9232,
      "##800": 9233,
      "==================": 9234,
      "seab": 9235,
      "bye": 9236,
      "endl": 9237,
      "outputfile": 9238,
      "190": 9239,
      "##egate": 9240,
      "'.'": 9241,
      "##374": 9242,
      "##ancy": 9243,
      "sentences": 9244,
      "\"%(": 9245,
      "fruits": 9246,
      "##_decorator": 9247,
      "successfully": 9248,
      "getelementsbytagname": 9249,
      "={\"": 9250,
      "##make": 9251,
      "##riv": 9252,
      "field2": 9253,
      "##_void": 9254,
      "##555": 9255,
      "latex": 9256,
      "answers": 9257,
      "##_groups": 9258,
      "##_depth": 9259,
      "[,": 9260,
      "w2": 9261,
      "##_div": 9262,
      "start_urls": 9263,
      "lineno": 9264,
      "field_name": 9265,
      "paramiko": 9266,
      "base_url": 9267,
      "##_graph": 9268,
      "backup": 9269,
      "##authent": 9270,
      "##poch": 9271,
      "pushbutton": 9272,
      "failure": 9273,
      "preced": 9274,
      "seaborn": 9275,
      "$',": 9276,
      "alex": 9277,
      "##kg": 9278,
      "##ky": 9279,
      "##exist": 9280,
      "fixt": 9281,
      "subelement": 9282,
      "]]])": 9283,
      "distances": 9284,
      "##_classes": 9285,
      "lots": 9286,
      "ta": 9287,
      "##ino": 9288,
      "##atial": 9289,
      "()+": 9290,
      "##acer": 9291,
      "##cha": 9292,
      "byref": 9293,
      "approp": 9294,
      "##ients": 9295,
      "linked": 9296,
      "##licit": 9297,
      "##local": 9298,
      "progressbar": 9299,
      "##encoding": 9300,
      "behavior": 9301,
      "\"^": 9302,
      "##fn": 9303,
      "##6e": 9304,
      "ini": 9305,
      "('=": 9306,
      "##icefield": 9307,
      "printed": 9308,
      "202": 9309,
      "##onday": 9310,
      "1990": 9311,
      "fasta": 9312,
      "find_elements_by": 9313,
      "##webkit": 9314,
      "exactly": 9315,
      "prepare": 9316,
      "c_char": 9317,
      "rn": 9318,
      "rh": 9319,
      "sites": 9320,
      "##month": 9321,
      "##1c": 9322,
      "asd": 9323,
      "##_lock": 9324,
      "iterations": 9325,
      "copying": 9326,
      "renderer": 9327,
      "##.*?)": 9328,
      "combining": 9329,
      "dotall": 9330,
      "sens": 9331,
      "tight": 9332,
      "tear": 9333,
      "##nes": 9334,
      "##ems": 9335,
      "alive": 9336,
      "doe": 9337,
      "##995": 9338,
      "##osen": 9339,
      "147": 9340,
      "abb": 9341,
      "##aaa": 9342,
      "generation": 9343,
      "##.*)": 9344,
      "##combo": 9345,
      "intersect": 9346,
      "isnan": 9347,
      "warnings": 9348,
      "##_access": 9349,
      "degree": 9350,
      "unicoded": 9351,
      "/=": 9352,
      "rich": 9353,
      "ruby": 9354,
      "sess": 9355,
      "##'\\": 9356,
      "##aset": 9357,
      "##\"\")": 9358,
      "##resource": 9359,
      "##ynomial": 9360,
      "##worker": 9361,
      "##pppp": 9362,
      "pycurl": 9363,
      "##create": 9364,
      ">\"\"\"": 9365,
      "fps": 9366,
      "gg": 9367,
      "mplot": 9368,
      "sb": 9369,
      "##rics": 9370,
      "##body": 9371,
      "##<<": 9372,
      "thank": 9373,
      "('^": 9374,
      "(\"[": 9375,
      "caller": 9376,
      "=[[": 9377,
      "0001": 9378,
      "boxlayout": 9379,
      "grey": 9380,
      "cpp": 9381,
      "criteria": 9382,
      "#...": 9383,
      "gdb": 9384,
      "sre": 9385,
      "##allayout": 9386,
      "key3": 9387,
      "##_sibling": 9388,
      "##112": 9389,
      "##protocol": 9390,
      "##326": 9391,
      "paint": 9392,
      "calculating": 9393,
      "##_record": 9394,
      "inheritance": 9395,
      "leading": 9396,
      "##_headers": 9397,
      "'!": 9398,
      "dont": 9399,
      "paper": 9400,
      "##csv": 9401,
      "##vs": 9402,
      "')],": 9403,
      "listing": 9404,
      "reser": 9405,
      "02d": 9406,
      "intermediate": 9407,
      "404": 9408,
      "##attributes": 9409,
      "add_edge": 9410,
      "appropri": 9411,
      ">\")": 9412,
      "land": 9413,
      "u01": 9414,
      "##ially": 9415,
      "##oot": 9416,
      "##mac": 9417,
      "in_file": 9418,
      "##ited": 9419,
      "##oman": 9420,
      "myarray": 9421,
      "##_pre": 9422,
      "cleanup": 9423,
      "##ology": 9424,
      "dword": 9425,
      "##_escape": 9426,
      "##li": 9427,
      "##layer": 9428,
      "##qq": 9429,
      "println": 9430,
      "##ploy": 9431,
      "clone": 9432,
      "isdir": 9433,
      "adds": 9434,
      "##ended": 9435,
      "##1101": 9436,
      "attack": 9437,
      "converted": 9438,
      "win32api": 9439,
      "##grade": 9440,
      "tbody": 9441,
      "033": 9442,
      "wave": 9443,
      "##8b": 9444,
      "##iding": 9445,
      "##urname": 9446,
      "##_slice": 9447,
      "153": 9448,
      "225": 9449,
      "smart": 9450,
      "##625": 9451,
      "tokenize": 9452,
      "smallest": 9453,
      "mplot3d": 9454,
      "\"--": 9455,
      "crc": 9456,
      "##nail": 9457,
      "##dn": 9458,
      "##8c": 9459,
      "##ales": 9460,
      "##second": 9461,
      "ints": 9462,
      "1500": 9463,
      "((\"": 9464,
      "0xb": 9465,
      "maya": 9466,
      "xxxx": 9467,
      "##fromtxt": 9468,
      "[]).": 9469,
      "pivot_table": 9470,
      "##>>>": 9471,
      "450": 9472,
      ":</": 9473,
      "`,": 9474,
      "##_edges": 9475,
      "##aced": 9476,
      "listb": 9477,
      "##_so": 9478,
      "httprespon": 9479,
      "parenthes": 9480,
      "param1": 9481,
      "blocking": 9482,
      "chunksize": 9483,
      "resolution": 9484,
      "ceil": 9485,
      "density": 9486,
      "wp": 9487,
      "ymax": 9488,
      "##oken": 9489,
      "##mouse": 9490,
      "##pet": 9491,
      "##fun": 9492,
      "##ored": 9493,
      "##003": 9494,
      "asset": 9495,
      "indic": 9496,
      "string2": 9497,
      "opened": 9498,
      "157": 9499,
      "colormap": 9500,
      "apples": 9501,
      "foreach": 9502,
      "accur": 9503,
      "photos": 9504,
      "xc3": 9505,
      "requirements": 9506,
      "##ycop": 9507,
      "acquire": 9508,
      "299": 9509,
      "epoch": 9510,
      "fw": 9511,
      "##9e": 9512,
      "inser": 9513,
      "datastore": 9514,
      "##eces": 9515,
      "\"\"\"<": 9516,
      "boot": 9517,
      "'}}": 9518,
      "##547": 9519,
      "projects": 9520,
      "provider": 9521,
      "##_multi": 9522,
      "hxs": 9523,
      "zs": 9524,
      "stroke": 9525,
      "##account": 9526,
      "get_data": 9527,
      "##_font": 9528,
      "compos": 9529,
      "##ugin": 9530,
      "##666": 9531,
      "##897": 9532,
      "##ntl": 9533,
      "parsestring": 9534,
      "i4": 9535,
      "vl": 9536,
      "##a5": 9537,
      "##esome": 9538,
      "##strap": 9539,
      "aspx": 9540,
      "##_dictionary": 9541,
      "love": 9542,
      "able": 9543,
      "##647": 9544,
      "175": 9545,
      "genfromtxt": 9546,
      "equation": 9547,
      "##_locator": 9548,
      ".+": 9549,
      "ee": 9550,
      "va": 9551,
      "##kw": 9552,
      "##stop": 9553,
      "myscript": 9554,
      "prof": 9555,
      "146": 9556,
      "delt": 9557,
      "floating": 9558,
      "##_gu": 9559,
      "correl": 9560,
      "##{}'.": 9561,
      "feat": 9562,
      "contextlib": 9563,
      "factorial": 9564,
[...]
